node {
  name: "x"
  op: "Placeholder"
  attr {
    key: "dtype"
    value {
      type: DT_FLOAT
    }
  }
  attr {
    key: "shape"
    value {
      shape {
        dim {
          size: -1
        }
        dim {
          size: 32
        }
        dim {
          size: 32
        }
        dim {
          size: 3
        }
      }
    }
  }
}
node {
  name: "sequential/conv2d/Conv2D/ReadVariableOp/resource"
  op: "Const"
  attr {
    key: "dtype"
    value {
      type: DT_FLOAT
    }
  }
  attr {
    key: "value"
    value {
      tensor {
        dtype: DT_FLOAT
        tensor_shape {
          dim {
            size: 3
          }
          dim {
            size: 3
          }
          dim {
            size: 3
          }
          dim {
            size: 32
          }
        }
        tensor_content: "\006\016\324\2758_\302\275g\347c\276\"\315\205\275\351\325\227;\330\346\356=@W\306\275\257M\276\275\225\222\312\275UD\347\275\332\311\010\276\327\310T\275*\347\206;\001h\007=\002_\374<\007\313\310=\242\002$\276\236\202\006>\000\0330\276\003\275<<\247N\267=#\200\004\276\227\374&=U\001\243\274A\372B\274\220y>=\274\240\254<\023\267\337=R\311\"\276\224\220(\276{k^=\336=\357<\216\3048\276B/\026\275%_\200\276\220\001\205\275\357\366\027>\357\317\034\276O \333\27524\037\275\341\007\030\276\201H\300\275\223\225\232\275\370\177}\275\214Y\014\275S9\005\276\211\020d\276\323\377\037\275\251\342%=T\244G>v\310v=^eN>\350\275a\274\342\267\341\275\357\351\272:Q\252>\276\247\324\331=\nq\212=\013\365\347=\336@:>\2341Z\276_\270\342\275\3577\n=Id\236<\177\233]\276\204l\272<\007\231s\274\347T\000=\324\004\307\275\244X\t\276\263&\240<\023ZX>j\304\250<\242X\r\275,\2000\276\317\366\206\275~\335Q\275\037eF\275\"X7\276\203I\327=\210\334\001\276\002\rL>=a\033\276\3126\">Bk\026>\226\241\025\276\266F\010=\245\323\346=Jh\357=\231\361\006>u\354\277\274i9\317=\002d\212=\346\201*\276\345\207\341;\006\ry=\242V.>n9Y\276L\345\204<\355\214\203\274\332~$>\267=\311=\003\212`\275\321\200\367;\007i\034\275\337\341@=\372\273W=K\306l=\303\330\243\276E\013\370=Q\013\016<\367\373\r>\000\0209\276\267\t\324\275\252%J\276\304+G;I\232\034\275\312m\330=\026\250\361\275c\364\025\276R\321\252\275\305td\275\270\372\236\275\372\223\370\275z\347&\275B\307\217\271D/!\276\310\"\020\276\"bB>8\377\003\276\275b\377;Z\010\327\275Q\373#=\364\257\031\276FS\025\2765\202\220\275\010H\337\274@8\357\275\342i\005\276\315\240W\276\\\315\216\276\3360\221\275\203\330{\276d\024\360=\203\020\211=\356\336}=Nx\032=m\220.\275\031\376\027\276\342\244\030=\251\301\004<\367|\005\276\310Q\327\275\321/\265\275m\320\334=\266(\323\275\313xA\276\307\241\235\275\032{e=\360\336\033\276\273\031C=f\354\264<CA\237\275\265p\025=\317\002\\\275\313\034`\275\2259[\276(V\254=y\021\276\274Hn\332\275\255-\245\273g\207\261\275\361\377>\276\261\263\335=\210&\251\274\362$/>\200\306\031=;x\362\275\205c\007\276\334\376\332=m=\026\275v\351\367\275y\3346>X\323\316\275\202\212V\275\3434\261\275\323\306\240=\201\036\335=\212)\371=q\352<\276\225\225\224\275\\\3701\276\005\232\301\274!\334^<\216\324\373\275\207\247\236\275\204\210\366<\314=\337\275\001\311d>i8\361=\304rR=s\373\336\275\334{==8<!>_\305\031\276\005\364\206=0bR\275\036=\355=\002\346\"\276\230\245.=\006*z\273y=\356\275+\205\377;\371.{\273^\253\224;\261\365\001\275I\375\356\275\013_\353=\371l\203=a\303\265<\241\247\262\275\270\357\033\276\302\007\242\275\311\323\r>\234\215\224\275\321\032\226\275\271\215\022\276n\256\r\276(X\024>\2432x\274\243\033\257=)\351\t\275\241\241\224=p6\215=_\242\257=\354@\'\275\323p4=\010\003\212\275\035AA\276\342I\372=1\321\n=)pL=z\246{\272\213J\253\275\302\312o\276\004\330\326=`\371U\275 \303\207\276)Q\223\275OK\375\275\005\2132=\301\333&\275e\037\r\276\315 \035=\234\213\203=\"]E=,\204k=\000\234\332;i\355\304\274\302\202\023\275/\017l\275|\250\205>\374\330\034\273\335X\035\274T\371C\275pdC\276\006\007n=e\205\236\275i\270\223\274\364\350\323<\233\rf=\225\2259=\224,\360=\025\375\235\275\036\217\264\275\322<\221=\201S\264\2750\316?>{pn=\031\277\026\276\243n\263\275O\217\225\275|(\222\274`\342#\276\235\266\204=\273\003\320\275^u\220\275\236N$>\342\207\003>\n\330\242\276\314\346\313=\305\232\211\275\341\335\223\275\261\256:>\334\016\327\274/z\266=\242\360&\275\325AO<\":\004\276$\r\354\2759\016X=\000\177\352\275\351.o=\375\324k\276\245\022\205\275\234\242n\276\374\250\'\276\233\362\217\275\037\375d\275\226\177\301\275\323\304\024\276\355|\005\275&\374\316=X\220\235=\342\215\330=\233M\302=\267\312\353\275\327E.>\254\202\276=\372\253\374=w\177\t=X\372\306\275\005i\365;]\272\"=\261K\207\274\322\206\372\275iF\230=X\303N\275 \340=<\034\333\000\275\341R\325\275\326h\036>\002X\034\275\021\2219\276\346N\211<{\221E\276u+\357\275\tPB\276\370\031\322\275;\261\342=^\246\317\275,\227\254\275=\255s=\323l\377\274\010\236\036\276jQ\037>\242\276T<\370\025\036>\213\345\234\276W\004\367\275\\V\215\275\006\353/>\223\010\207=N!#\276\372\215\023\276\340\302\315\273\374\341/\275?h\327\274\020\333\017>\206z\217\275\0173\023\275\\\347\272\274p\233e<\323\010L>E\375\201=\233\005\003\276\t\306\t\276\342$O<\325\325\007\275\020\253\036\276f\2702\276\376J\020>J?\366\274t\352D\276\202\234a=\376\251\360<\377jg=J\360\031>\225\351\n>\334\027\220\274\016\004\241=\372\205\002<\272\353\333\275\204L\246<\350\257[>\300\236\030\276[\3763\276\022\304\354\275\271V\255\275\310V\227=W\270%\275\372a\'>\242J\243=L\256\027\276\265Mk\276-\240\r\276\271\251}\276\260\210\335=)\250\264\275\025\272\243\274g\260\031\275\362[\353\275J\345\301\274\205Q\203\276\214\317<\276\014\220\214=\330\220\312\275\376a\307\275\227\305\334=\222I\233=`]\315=V\247\006\276\232\030\215\275Y\005\036=\350\030F=\3778\220\276\253\312&>\216\372\371<\3055\277\275\360O\215\276\374HL>\345\236\006\276/S\363\275-{\315\275\370f\351=Bi\204\275\325+$\276<:\"\275\365S4\276\334\222\361=\005\375\217\276U\010\022\276\'\224\325\275\274O\343\273\233\303u\276\266\025D\276ea\215\273!\367\234\274\275\305\244\275\272`\274\275\033R\334\273\360\263\314\274\247\364\261\275\020\321\373\275\000X1\276\370\207\211<\256\271\245=;\277\353\275\246\252\314=\202\252\003\276?\213\210\274\262\023\027\276\277\347=\276\270F\345\273*\344J=\007\227\253\275\313\330\306=\361i\203\276^J\330\274\355\244\035<8\324x=\354\245\230\274\364\274\350\275B\023\331=wb\264=\246\367\010\276\231ND\276\3460<\276\340\0168\276\026+\026=f^4>\304\352|\275e\255\212\275L\306y\275\026y\214\274\n\266\000\276\270\357\332=\312\205\256\271s\204\302\275\241\277a\276dV4\273\023N\334\274\030\241\033\274\312R\314<rj$=\352\330\030=\354\3022\276\346\234U>I\323s\274\374q\253\275Z\350\226\275\376\027#>\202\315\224=D\234w\276;\250\177\275\223j\313\275\006\355!\276\265\273\306\275\377W;=R\230\027\274\375\337\235=\355\024\270\2749\256\023\276\343=\007\275\2239D\276\200!\310\275\226(\204=wf\344=L d=\001\263k\2766A!\275%\377<<\211\352\303\275u\312\025=\376\023%\276$\026;\276}zG>\231*\237\275\360\237G\276N\352\232\275e\007\373\275\211+4<z.\013\276\361yT\275r\205~=\273.\347\275\254D7>\033\345\023\275\357M\235\274\303\314\t>\206p\222=\234\2654=L]\017>\004\022\320=/\364\253=\207T\233\276\220\337)\276\377\316\016\276\344O\321=\276\326:\276\371da\276\377\037\n\276\273<\375=\237b\022=\322\305\001\276\002)\273\275\222d\255\273Ja\305=\371\177\t\276\031]\"<\206\336r\276\177\266Y\276\3137\224=\215&`\276K\2316\276S\025\341=\327\234L>c\t\220=\223K%\274EEH\273\207\r\213=p\206\337<q\374\334=\244t\002\276\242\316\211\275\306\3778>;t\007>^\227Y\275\017\260\222\275M\216Q\2768\013(\275\021\365\302\274]\213\315\275\275I\223\275X_\032\276\006\340(>6\305-=tlc\276N\326\020>u\304]>\251\311\313\275\224.\000\276\005\357\311=E\217:\2754+\354\274f\212*>-r\246=x\341\217=\021\316~\276\203\330\213\275\236\267\023>_u\024\276\033\\\t>\257\371\035=\263\207\263\275\263\241)\276\n0\333\274\241\214\r\275\326c\210=\247\033F>\346#\014>\243\360\331=$:\265\275\220W\211\275\023\233\316<\024\357\367=\201\2719=)0$>w\327:=\373\2517\276\027\2536<\\h\031>\300\242\321\275Q9G\275\251>\004>\014\242?=Yy\270=L(\336\275\241\022\204\275p\226#>\241\305\205\276\323E\034\276#\2619>\247xj\274\255\031\350=\362\244\205=ru2=6mN\276)e\371\275|\2060\276\272\352\245=P\222\223=0\242\255\275\\\207\025\275\237\347\264\2756n\205=\2379\216\276\252\255\212\274s95=\323\000->\252\255\000=\2620\326\275\0021o\275\360 ?=OB\033\276\301\n\000\275\020\241\310\275\013\306x\275\364\373\365;qF\334\275\2747\375<;\303\226=\2072j\276(\002>\276)\2331>\203\341\356\274\267di\274M\337\272\274b\036\357\275aZ\230\273l\337\016\276[D\017\276#!\250\275\353\204t\276=0+>\336\245\010>i\201\225\275}2\314=\317\232\000>\303\033\023\274\307_+\275j~\207=t\021\000\276x\201\037>:\024\300=Z\243\\>\267\357*\276\323\333\376=+\277\277=\\q\202<\324\327?\274~\367\346=\273^X=\237\253\\\276iQ\026\276^\215E>\374\356\020\276\'\327\250\275JP\251=~\221p=a\371?=\245\300\007\275\"D\256\274)\231\036;(Y\213\2755\332\234<\262j\023=\316\204\035\276@\365\013\276\"\276\226\275\226\372\200=n\254\035\276\36111=\016\203\274\275\377g\234\275+\025$>4\352\010\276\2322\351<\263)\016=\312\300\267\27519\331=\271\214Y\275\257t<\275D\303\025=.\353\347\273\372r4\276Z\000F\276\233\013S>\302tL\276\204\265\277\273\225d\311:\263\032\030>\027\263\327\275\210\223\241<rL\361;\346\'\353=l\231\033\276\211\2175\2754\263\311\275<m\257=\311\007r\276\241\001f\276\345\220\222\275\260o\243\275\371\250*=\226\374\013\276\235yV\275\240@L\276\260\n\201\275\233\360\003\276\031Z_\276\345\311\036\276\266\240K>\323Wt\275\212L\274=\214\372?\276\025/\266\275s.8\276\345\020\324\275_>\n>\367P?\276+\223\213\275\365/\216\275|<\266=\014\304\020\275T\212\n\276\2002\335=\275\235\027=\274\377\323=\376CA\276\212w\004>d\033p\274\304\222\354<M\242O<\371_!=y\341\032=Q\233$\275\250\216D\276\036\224_\276\203\204\035>\\\017\336\274V\311`\275{\320\006\276\277qJ=\213C\244<\323\037\037>\356\370$\274\247\350\177\275_+\n>\217\226\023>F\275\272=L\037u\276\316y\347<\266\275\233=^eu=\0351\261\275\341:\022>L\312 >\274\222D>\225#\372=\233$\203\275\016Zd\275.y\000\276_\376\233\275\331\354\221\275\242\343\032\275\271\010\321\275\266\307`\276}\226\276=\244\272&\272\270K\033\276f\024\014>\360eq=\r(\330\275\344\304\374\273\345?\335\275`\027\000>\260\342\004\276`\245\006=G(\250\275<\201\376\275E\226\247\275\316C\246;(\345\365;\204\323->r\222C\274\230\377\352=\t\250\036>@\255\320\275X$\036<\321Vf>\363\343U\275,A \275\230\213\004\276\272\276\354\274\377\340\236\2737~\257\2752P6\276g\302\035\276b\244f\276,T\346=}/6\275s,\232=\274w1\276\022\227E=\266\313N\276(C\"\276\257\023\302<D\224\301=w\306\254\275\206=\270<8\013\215\275\341`\246\275:q\335\275\343\321\030>\203\312w=\273\317%>\245i\263\275\364(\n>\363\000\366\275\352N9=\332g\"=K8\010>A\252\002>\233\270\034\275\250d5=\274\227+>\"\355\363\273\300;\202\275;\322\350\275an\033\275\220\223\325\275h@\266\275<\032\270="
      }
    }
  }
}
node {
  name: "sequential/conv2d/BiasAdd/ReadVariableOp/resource"
  op: "Const"
  attr {
    key: "dtype"
    value {
      type: DT_FLOAT
    }
  }
  attr {
    key: "value"
    value {
      tensor {
        dtype: DT_FLOAT
        tensor_shape {
          dim {
            size: 32
          }
        }
        tensor_content: "v\032\226>\211\301?>\325\360\036>b\r\017>\233\037[\276\367_\245\276\005K\014>\024\256\252\276:#\357\2761\301\265:\305\246\366<\377L\326>\260\007\221\274\317\214G>+\023\231>\242\',\277A\2026\277\220\322\216=\233\360\332;\230\226\335\275Mu\206>\343\230>>\250\003S\277\224\371\377<\300\301#\277\'4%>\342\225\006\277\31631\276m\301\247>}T\036>\306x\356>n\226\250>"
      }
    }
  }
}
node {
  name: "sequential/conv2d_1/Conv2D/ReadVariableOp/resource"
  op: "Const"
  attr {
    key: "dtype"
    value {
      type: DT_FLOAT
    }
  }
  attr {
    key: "value"
    value {
      tensor {
        dtype: DT_FLOAT
        tensor_shape {
          dim {
            size: 3
          }
          dim {
            size: 3
          }
          dim {
            size: 32
          }
          dim {
            size: 64
          }
        }
        tensor_content: "\374\203\334\275`\003M\275\037\334\320\274\347\211h\276\311U|<\035_\333=s\323+\276\351\264\264\2753\341\252\275\300\236\261\275\336l;\2757-\227\275\331\201\002\2768\202\220<4\033\215\275\022\357\345<<\236\001>G\375j=\341\002D\276)kR\276E\316\246\275\340g\211\275\252%\214\275w\347\235=\206\230\306\2749Et=\303\365==\245\356[\276`\331A\275\336\216C\276\022\261\"=\233\245\205\273K\260\302=\274\354\310={T\221\275\014\327\303=3\240\331=\342`\310\275\300\243U=\003E\217\276\260Hn\276fC\223\276N1*\276Q$\235\274,\2151>.\264\330;\2003\211=\333\363\255=\256l\024;\3025\r\276\214)\324<\2564\211<Z\264o=\276]i\276OUz>q\177\343=z\241\346\275\241,C>\333\200\313\275e\032\004>r/\355\275m\243\177=\213\321\014\273\204Qa\273\r\3241\275\250\342a=\020\356\206>\201\211\204=4\206\231;\300\301\224\275Z\357\244\274\267_\201\275gZ\215=$\252\364;\331\346!\275\006`6\276\241\016\205=\371\252\023\276\003\212\266\273\t9\017\276\"e\025\276}\333I>\275s\226\275\314-\201\275S\202\033\275j9\020\275\001\331s\275\354/\014>+u\363=\014$\010\276\251@\241=\366\315\305<\344ZU=Q\354^\275\323\n\233<\356nZ=\304;z<\325+\016>\245v+>\247\224`>\262Q\271<\216$\024\276\241\025\020=[8\332\275\325\'\363;\005\271\034\273\027\304\321\275\032l\n>B\\:\276\252\377=\276UJ5\276u?\232\276\365^2\276\002\242\241=\372\344@=\010Y\362=\020/\337=\263\375=\276\226\247\016\276\264\223\365=\201\366\336=\223\025\252=Al\321\275\026\371\223>\3613\304\274\264L\333:2[U\275\371\013R\276\311B\214\275F&h=\350z\334\275\215\013\324\274%\334U\275\220K:\275\005q\353;\342N\332<\351\r\026\275\203\260+\275P\362?\276\'\274q=W/\253=\t\025\347\275\234a\336;\315w-\275\331\240\n\276$-\330=\207\260\033=\250\360}\276@H\375\274Q=\327\275\016r\220\275\215e\263=\2735\036>\244\267\305\275)\014\244=\365h@\274}t/>\342\3700\275]\355\013\276\257\336@=,\316\277=\264\034\263=\223\353+\273L\365\370=\235\352\361<\3777*>\030x\322=0\242\260\275\375\000-=V\251\307\275U\004\016\276\336\032\326=yi\205\276\016\275\177=(l\002\274\320AB\276\324\333\032\275\352\366Z=\010R\014\275\220\222\251=\300\356\230=^\227\031\275+8g=\253+Z;\344H\252\275W\244\027\276\304\240\212:\362\332\360\274\214\017\361<\347z\007>\254%\365=w9\302\273\343i\357=\204\2371=34\336\275P\255\222\276\300<v>9zP\276\245\241\"=\202Z\024=\035@C\276\222\275w<\274\nh\275\261<=\275\206p/<\251m\016\274\350I\306=\312\301\345=K\312\274\275^\264~\275\262\365\252=\322\324\030\276\321\036\r\2756o\014\275\247^\016\276\232\341T>\257\360\302\275\t\2444\275\005\325.>+6\013\275\354L\354\275\035\262!=!C\304\274\207\352\357\275\272\312\211\274\351\371\273\276{ru=\034\333\234=R\300\025>T\255\177>:\2371>u\030\330\275~\022\216\273EwS=\007\214j\276\252\024x\275\004\326\002\276\237]l=\t\224\267= W\2166\007*\201\276^[\217=\365f\033\276\205\264U\276~Y\007\276\373\353\264\275\300\002\355<\343\372\330\274\216\231\306\274\324z\232=u\314\t\276\031\204\\=\3412\320=q\032!>3\002\230=\213\002\321\275/L\254\275c<\\<\305/\223\275\360\024\362\275\020y<=F\023\202;\236\'0\276.C\230\274\332\270\336\275\242\254f\2751@\230\275\263\316:=&\177\000\276\205\237\001\276T\031\327\275H0?\275\205\357\025\276\'\031@\2761\370\003\2767y1\275G\304\207=/\222q\275a_B\275\377\312\215=UC\246<\377z#\276\322s\376<\340k<;\274[\035\275@\321%=\273\324\365\275\244\267\250\275\r\260l\275v3\037\276\003\222\230\276xw\263=\033\210\r\275\256\347p\272\"\323\035\276\362\374y\276\334\3157=m\311\315=*\036,\275!\361\347=NF\032;\272\263\356\275]\t\273\274\222\351?\276\350\354\"=\360\370\216=U?\316\275\025\202\252\275}\261B\276\267\206\327\273\343\322\276\276\361\021`=\254\201R\276\320L\004\275H\n\262\275)\337\027\275\320\234\211<\2050;\275\344\266\016>\336/\016\276)=\206\275\006b\276;RVm\276\352#\273\276\217\211\331\275\262\027\004>\312\027\210\274\235\367\261\275\356\022\245<\276P\341=a\303\310\275\265\242[=\266\335V=S9\007=\000\244\277\275\337Y\373\275\266\005~<|E?\275\007\\\250:\372\002\021=:\210\r>\370=\026>\0320\030<\0057q;w\251\344;nO\'\276\352K\376\274\353\364\220=\342\221\205=\215bR\275\340ri\274\207\216n<U_m\274\247\311\213\276\321l\032\276\023\231\177=&<\\\275\267;\261\275XOb\275\t\235B\276on\260\274\312\310\247;&\320\226\276\311\351\377=\206b\205\275\302\237Q\274D\"\237=X8\025\276m\017\306:\265C\335\275\320\346:\276\231\310F=Yw2\276\n.\202\275K\327\276\276\255n\204\274\307dm\275Z\221\003\276\305\3739\275\242\277\363=\367KI\275\024}\317<\234}\001\276z\0225\275/_\206\273R\0102\276\237)\277=\322\256\203\275\034\351\327=%\026\242=\341\222;\276\210\314\243\275\263r\226\276\200i\226\275\310\334\177\276\304/\374\275\355\022|\276\231xW\276tbi\276\222\337\203\276}\257\'\276\201\362m\276\213\333\337<\221\363\374\275J\333\300\275\231d\202\275\\\363\311\27572b\276\036\346\033>~\220)\276\373\3552\275\026\317d\275\004#N\274\341\316\000\276w\346\245=\252\007\266\275\226\361\217\275\345a\343;\367\027\'=\207\226 =|\322$\2745\334(>_p\006\276p\202\257<9\264\237<\354\037\254\276$\212\007\275o\226\342=\352$D\275\306\222\212<\231\007\221=\342+\016><\254\246\275\035U\344\275\001o\357\274]\210\001\277\304\301;\276\334.\224\275\210p@\276\327\276\277<\273`\350\275\002\222\243=h\240\025=+[\262<\217Z\247=\361\354\001\275\372\362\276=\250C\032>9z\250\275a\253\213:\226%\243\274\020\216t\276$\367\204\276\221%\024>/`\230\275\334(\001\275\257\265\254\276\247Zl\275\340\263\232\275\332\372\"\275\276\2052\276\t\241\276\275u\3179=\353\267O=\302\312\300=\223\324\010\275\341/\374\274\242l\000>\351\364\251=\221\362\246\274A\205c\275\341&\016>\203\335i\276\004$\214\276\256\305 >\201\3179\276\271\223\\>^\343\212=Ad\254<\367>i=\303\351m\275\335\033\264<\'\310\212=i#\375=\313\201\305=\376m%=\260\304.\276\236,\020\276>7\245;h\177\347<cg4=5d0\274\020\310\265<d\235)\274o\365K\276$\350\333\275\307\323\233\275\253l\323\275\340\263#\2763\307\356\275HC\212\275\235\255\226=x\307\241=\233eA\275\036\026\373\275\2273J\276.\210}\275\302\323T=\333\216\333\275\250\272\003\275N\030\276\275\316\002\214=\2325\256\275_*\r\275\242\355\022\275\276\242\344\275t\3740\276\361X>>{\201\362\275E\305?\276\341\023\360\275\314Q\323\275\262\351\247\275\355T\027=\262\255\004\276J\231\303\273\376\347A\275\324)\270=\230\002\023\275d\014Y\276\216(?\275\306@\335\275\247\022\271;>\237S\275\220\354m=<|%\275\017\207\362=\312C\302\275Nk\317\274db\032<\263?&=B\\\005=-\341\375<\300l\010\276\3143\006\276\250\272\021\27639\271\274\003w\242=\241\026\304\273H\221\005=;\323!\276\310\311\226=\343\274\376<\355\031\337\274S\253\321\275\320xQ\274\245K\021\276\006+\007\274\201\317\254\275\240E\032<\232\271x\275\375\315\025\273:\331\240\274\205\251\350\275\375\274\370\275%Vu\275\330C\351=\376!\342\275h\236[<\333\377\032<n\212\346\2759\021\002\276=f\020>m+\326\275\312|\250<\271\203(\274WF!<\270\004\220\275L\244\274=\031:\347=\354/\364\275\202\216\272\274\214v/\274X\227\323=\371\231\261\274\363I\315\272\004\344\203\275d5\223<O\342\206=|\023T\276\016\313\342\275\267K \275M_\313=\235\"\003\276\250\277\020>\331(\314<\2165\306<\240\3131=?\2233=\312\202\006=\254\253\230\274\263)\232\275F\356\346\275\326\376\271\275(e\330<v\312\207\274j\325\373<\231\245\300\275\374\227\237\275\017\361\212;\335\017\232\274z\261u>\361f\237\275:\004:<\303Q\346=Dg@\275\225\300\035>\n\323\215\275\344\231\001\275\344?)\276.8\256\2740\372\007\274\003\367\323<Y\341\330;\255\364\"\275\316\300G>\330\013*:\317\004\236=\243\253\314\275\245\220\317\275\340\232,<\333+=>\036,\001\276\023\211\021\273\325>\317\275\026\005\271<@qe<\270\002F>\211s\233\275\370\245\210;\353\330\374\274\212?\222\275n\2655\276\016\260\327;\373\n\006>%v \276\207\030\320\275c\3545\276@\350]\275z\320a<\375\002\342<\215\307\t=?93\275\360\300:\274o\342\314\274\306eR=R\260f<m\346$<\205\251j=\003\200\371\275\263\263\212\275M%;\275\266\2266\275\264;\310=\312r\251;\324\2211\274\204WA\274-\030[<\375ev\275\007\037\002=\177\004a\276\nS\210\274Z\241y\275\347pr<^/U=\211TL\274\353\254\355\275`K\t>Jo\243=\220\313q=G\007\025\276:\2151=U\353\244<\037\274\004=]\027\344\274\217\244E\274Q\225\007=\206\322\236\274$S\254=\226P\204=\2600[=Q\262z\275_/\373\275o\326\341;\236\"E\275\253\010\021=\231\016}\275\233\014\353=T\356\200<\\@\002<?J\370=\213\310\000=\314;\265\275\366r\304=\3209g<\031\267\254<\321\267\267\275\307\325\234\275U\353\222=\005J~=\247@\006=\302\234Y\275\217\316\317\274Y!_<\320\267\326;\327fe\276<\036\260\274\313F&\274#x\301;\327IJ\2743\240!\276\306c\006=b\346\357=u~\031\274\202/\\=\320*\373=\326\2469\275p&\357\273\006\324\023\275\335\236+\275(L\030\275\033\336!=\007s\261<\305k\002=!\346T\274\017\277*\275\3254\326\275\314\312\320\275DN\223<\013\305\326\275\222\366\343\2745\3429=7\204\335=;V2\276\350y!>\330l\010>l&\254\275\200\367\020\276\000\262\262\2751xw\274\357\220.>\020\251\272\272G\200(\276\314\266\244\273\226\2022\276\270\037)\276\306\352x\275\227I\026\275\370\247\275\275\215\023\265=\352\036C\275\346\352\271\274R\220\023\275]\221\213=\203\312\373;J_!\274\272=\310\275)\320\255<\222cB=>\t\305\274\332\321X\2759\363\343=\2033\353\2755\rB\271\"\254:\275J\336\317\275K\335\314>\345$\351<T1G\276)\305Q=}\256\365<\345G0\274\357\333$\276\352`\n\276cZ\002\275\r^a\276(jj=+s\006\275\242\225\355<_s\216=\304+v\274N\373\002>\353\250\313=\3653\031\272.\240\030\275\353\367\307\274e?\002> q!\274C\246]\275\370\202\t\275\r$\321\2750]2>\367&\275\275\005< \275!0\t>\202\217\244=\030\3167=\252=\264<`Y->\224\231\241\274\317%Z=\037\003-\276\370\007\307\275\005\372\311<6\000\002>\246q\347<\212d{=\222\027\027\276\325\210\032\275\354\023}\275\231\007\233=7\232\010=5pJ\274|\327o\275l\324\024\276\t/)\276*\241n<g\317\264=D\324\206;\005\030K=\252]\022=\216\016\241\275QJX\275\004!E\274\212\252\256\275,\260\326<\236\361R>\274\226\356=\314\224\273=\331\235\302\275(d\347\274hU(\276S\221r\276\363\263\003\276O|\377\275\"\003\017=\363;\217\275[k\032\276\022\177\004>\346\225\252=W\357\251\275\226\323R\276W\333\020=P\326\360\274\245\312\006\275G\335X>q\036\022>\256\t\366<O\002\242<\341(\203\275\226lW>\226\370\275\274z\"m\276\026\365#\276\026\033\375\273i\251\337<\345\236U\276\241X[\27564,\276\3070\177=\033\222\347\274\317Rt\276S>\'\276v\"m\275\344\312\252\273\021\277x\275\r#,>\244;F\275z\354T=\357\275}\273w,V=h\354\031=\222s\013>\"\354F\276\326h\247\276\032d\374\274\276\200\352=\325t\231=\0255\340\275Ql\021\274\333\254\r>>\257\010\275\025\255\324\275\350\373\013<\203\240\004>\264\247\017\275\033-%\275\213*\360<1\211\213\276(;^\276\177\n\033\275\372\0340\276\020;\233\274\372\300\333\275[\256\226=\013X\201\274\354\002\257\275\"}\257\274XN&\275\353)\261\275\206\206\216=\240\037\346\275-\245\013\276\371\357\242>\n\256\276\273\306\"\004\2762q*<\330Q\037>\353\326b=\000\237\225=(\266\203\273_\r\321=\233%:=.LP=L\372/\276&\253\032\275\n\322c\275py\254=\002\216\037=r\261\033<\257u\372=Y=T=&z\r>\373\377A>\250u+>\316\301\014\276/a\224=\367\224\361<\367\"\270=\321Zd<\363\375^\275;\307\210=\210\247\261=\257\321\313\276\363\324\214\275%\345\037\276\3664@>S\343\342=\013\352\227\275\020\251R<\rZ`<\373\302\240\275\217r\271=Q\314\345\273\224\324\301\275\371T\300\275)r\231=x\000X>)vW=\236-\307=\311w\225=:\343\177\273\023\205M=`\202\021\276\231CC\275\231v\007\276,\231\223=\037?\315\275\242\367\001\275L\246\001\276\273\330\224\276\254\265\257<<\363m\276:T\250\275\346\376\305<V;\235=\307i\005<<\001\016<\326u7;K\353\'\276\257:\267=\311\216\'=p\321\334\276\220DT=\010\255\336\275\251\022\307\275\264o\251;1\366s\275\270\327w=t6\350\275,\251\312\275EA\320\274\000\360A\276\260\031\225\275W\'\023>\037;\013=`|\361=#\206\t>C\237 =8\006\211\276\006\220\313\274\016\352\001\276\270B\002\276H\260\224=\364\000\3529_t\210\275\242\324V\274~D\246=3\216(\274LT.=\242\237\004\276\332\024\'<\2022\321\275\002 \211\275\301p\022\276\274\317\010\276k9A\276\277i\303\275\374\013&\276}\022\231=.\275\376=\330\207\246\275\355\2707>\262\227\324=\016\334\264\275\201l\266\275K\031O\276\366\217\027\2768\032>\275j\376\357=\261u\361\275\226\021\260\275\345\376\320\275A\313\304\275#E\224=\014\370c\273\211\247\005\276>\273A\274\036\'\204\274|\035\036\276\006\332\226\275[U\247\275\213\246\203:x\360\355\275\263A\025>\035\035\202\276)L\007=\022\363\332\275\207\236l>1VT\276\036\207\236\275\325t\253\275,\2725\2751\227\354\275\242+\275\275\341\211\335\275_\215\007\275\371\007\312\274\374\026\360\274~c\260;\240\037o;\002M\371=\260\355W\276\236\236\322:1m%\273\311\024\363\274\021\271u\275\325.\211\275\362\215\001\276\346\230\005\2762\0372\276\311\302@=\253\206\217=\035$\220\275\0236\346\275/\365a\276\264z\254\275I\021\353\273\217\177\020\276\240W\326<\304\234\363\275\347g\305=\2470\265\276\250<N\275\241\r\237=\t\273t=\005\375A\273\000e\026\275\\r\261\275\031\312\352\275\220\337\377<\033\373\201\276PbR=0mU\275c\232\322\275\177\023\005\276\260Zr\2757\230\251=\236}:\275?H\204=\321(\351\275/\351k\273\340\037%<\231O\205\2758rD\275]k\373\275\267\330\370\2752)\362\275\230\307\354\275\346N8\276\236\270X;w%`>o\242\003\276\374\013\242\276F\260\201:]\367\331\275\025\321\005\275\334\001\343<b\262K<+\305\372=\032\233%\276\031\215\220=]\360\362\275\263\020\301\275\027\370\000\275\320k9=\331\343\003<\227z\304\275\032\362\202\271@\n\303\275\032\224\220\275\323\202Z<9YI=\021\372N\275|\017\004=C\021:>6Z\311\275z\353\374=\341m\266;v\356\370=\377\\\264\273\027\024\252\274 \024\227\275\003t\253=NN\257\275\243g\345=X\361R\273;23\274\352H\013>\356\345i\276\350\225\026\274\201\303\372<\264\244+\275\371\216\340<\375\264\356\275\240\315\024>1\322\217\276u\371\345\275^4\210\275e\025$=Z\277\262=\304.\217<\212\207f\275\377\213\021;\210\2279\2762\252n\274Pp\221\275\250fC\276\264\235\037>\024\336)\275\331\032c<\202\340\023>\236\217\025\276BB&=M\356\036<d\207\262=4=t\274\3761J=\244(8=8\344\022<{\352\305\275])\315;\267\277U<\251\317\333;\031G\265\275\246\231\242\274$\232_\275\312\323\354=\326\030\330;.\2071\275<\214\350=\200\365\000=r\261\336<\206T\316\274\376\260\014\275\210\264\226;\t\337B=kP\235\274\243(\277<\323*\016\276\031\n\347\273)t<\275\n\022\300\274+\230\n\274u\303\237\275\0104\241=\365\254\013\275n\277\206=v)\t\276\271}\310=\255\371\210=&\021t\275\030\305\006=\37646=l\375\354\275a\264\311\275[a\034=\256\277\330<\370\356\227\274\214z\025\276XF2;\330w\037\275\034_#\276\305\021\343\275\016\364P>\nvR\275\221\025E>[\005\r>\022\021\264;}5p\274&\013\t>,\365o<\003\013\271\274\017d\347<\220\204\206<\3406\031\276\034F\300\275\331\201d\276O\010\276\275/\224j>\266\243E\276\2350\016=\270\007\002\276y\320\037\275\251\237\365\275UA\">x\241\250\275L`\372=\347\224\352\275}\261\343\275\207\240\005\276W2\216=\np@<\352-\\=\354\244/\2753\251\222\275\215%\246=V\305\222\274\025\300\216\276-\022\324\275\352\004\234\275\277\342\337\275\271Og\274\374\331\211\275Do\034\276\316\227\362:\017\206\031>utT\276\226\027O>a\305\266<\220 2\276\004l\036=\327\257\241\275\276-\270\275\215\352\320<K+\370=\273\336\312=\244\322\003<\267W\254\275,\317P\276\270\333\326\275\325,\217\275#o,\276>\007\303\275\360\020\203\2752:\251=V9\241\274O\201\036\276\010\310\266=.\351!\273tcG<\374\177R\2759U\001=!\017\222\275b\317\r\276\336IM=\301\235\230=\2621\225\274$\t\367\275\261\337@<\355\2572=P\016\323\2757\265\263\275\345\244\311=\373>\217\275\336!u=/\204\252\275\017\274.\276\002R\254=CU\t\276\002\3033=\273oX>\335/\300\274\221\3338=\373\233\036\274\303\rE=\341\325\252\275\254\347Y\276\254x\341\274\206\353B\276\346o@\275J\334\213\275L\303\022\276\335\201\021=5\202 =\t\000v\2759\014\244\275\317=\347\275t\302\034\275or~\276\010\023\234=o\037\256<\256\2257\276hH\307\275\263\001?>\322\251\354=\n\324\237\275\210[\272=UR\017>\241O\205=\345\364\013=L\207\366\275\321\337\353\2754T\006\276U\3040\276\243kF\2754\337\307<%\306\002\276\355\310\271\274m\025\357=d4\025=\262#\235\275\376R\213\275;\t\251\274\367\243\010\276!\233G\275\216\342\363\275J\2671\275\262\246\014\274\261\251\310=\255\301V=C.\241\276&@K\2761o\017\276\213\301\325=\002\210x\276\241\'\273\275\373\033r=\304\347\210:\202U\207\276\236\035/>\214\221o\276\004\233X\275\324;V\276c\t<\276\351\331\367\2758#\335=\262\217\316;\247P\211=\305m\272\275\371e\354;\033\034\003=\035C\020\2763\276\247\276\327\202o\273(\002k\276\257\245g\275\005W\243\275:@2\276;\246\030\276iu\200=W2\243<|\024B\273<Z\233<Ip\020>\366fH\276\245\220\360\275Z\035=\276\307\214\307<\0221\213\275o\215S\275\300\'\332=\346*\037\276\006\351\204=\236a\367=\302\274\031\276\320\311\334<X1\020\276\334w\265\275\013\\S\275\265\004\273\2768T\013\275\255\235\310\274\244hu\274c\016\020\276\357\222\344;8\200\265=\305\005\000\276\361b%>\000\313\361=\304\374\327<\2768d;\335}\336<\252\362\350<>\177\027<7c|=x\017\275=zs\002\275\277\201\"=\016\254\321\275isU\273R~Q\275\022\330*\274$u\022<<\273\014\275\376%\r\274\177/v\275\256\237\027=\252e\257\274\017o\272<\325\270\034<\340F\236\274\304\215\206<\267\213\261=\014%\201=\333\342}\274}\t\000\2764\255 =u;\263=\242\\~\275\2662\247<\220\033\002\276\367\360\273<K\331\021\275\346\307\255<\246\021\330=\3460\345\274T\243\303=\311\206\370\275\216\025\213\274\317\305\302=\247\324x\275\021\0379\274\"\365\206\275\215-\221\275\274~P\2761\222\034\274\237\255\016=\037\\\275\274\336\236&\275\355\030\372\275\243Q\203<\363\024\331=\371\351\251<\010\251r=wR\375=u;\020=\233\256\007>H\251\016\273\221\t\254\275\226.\310=\262\017\213\275\301E\t<$o\205\274{\002(\276X2\t\276a$\363<\262J\016\276\224\231\250=])\240\274\363f\353=xQw\275\033\333!>\n\355\243\275R6\020;Ok,=\237\236\216\275\320p\310\275<\315\271;\245\303\210<:VV=B\026\211\275s\274)=\257wo\275\332\242\214\275\270\347\030\276\354$\262=\213\200\337\275\201\037.\274\024V;<\215\0030>\220\234\302\275\215\203\266=\365i\343;[\3765<L\263\272\275L\233\261<\036\347N\275\027i\377\275\314=\247=\2413\251\274\303\177\032>F\255\257=%\036(\276N-\023=\002\252\n>OX\231=\000\256^\274\026i\342\274\224\274)\274\324\336K\275hI\274<\327.\001>S\371\210\275\254\255(>\r\256\034\276G\322_=\t\204<\275)\020\254\275\034w\203\275G\276\006=\0313\263\274\t\376,\275\312\322\221\275\212~\217=\376\036\364\275\337i\214\275f\214k\275[\"\313\275\216\376\243\272\307\2633<\242\021\320=\214\231x\272\377\323\252\275\010\226\021\273\022jf\276\177\201\034\274Ab\006\276`\342\274\275N\214\367:\032Y\210\275h\262R\275\001\340\006\276\364\311\336\275\347l\202\273M\362\225=RR\253=\217\001N\274\241y\033\275\330\006\025\276\200^/\274\211\014\250\275a\363\231=\377\031Q<\304\032-=\3451M\275\335\252\261\275\342\232\222\274K\245\023\276\363(!\276\034`x\276\027h\276\276\336b\302\273@\330\000\276\364\030\022=\273\301O\274U\3628\275\022B\026\276gw\251\275fs7=-\213/\275\212!+=[%/\276\233\347\247\275\025\375\251\275jmT\275;\014\302\274\250c\345\275\2156\216>\001->>\220\030,\275\353\376\344\273\343\242Z\274\215\223\353\275\302K=\275\240\027\255=u\214\326\274\257\244\364\273\017\370\231\274\361H\313\275W\372\214\275:3\311<`\3370\276\035\020\033=\362!\226=k.\340=\221\273\005=\252C\304=A\242\276\275\201oC\275\037d#\276J\250\203\275W%\036\276C&1>\2516\032\276\221w\333\275K\000\301\275\332\373N=\356j<=\345\276<=ye\241=\200\253L>\365H\302<\222A9\276\253\242%\274\035\360\230=\010\016c=\014\300\340\274Ua\232\275?(\025\276\353B\362\275\010\352$\276\3500.\275 a\310\274Q\213\017\276\355\013\035\275/\264h=\330\031\276\274\3764\000<\322\313\342\275\245\353\222=\315\203E\276uf>>\3527>\276M\010\237=\251\335\223\275\353\231!\276_,\237\274y\206\000=\0375\330\2756S\326\274L\022d;\274\014\347\274W\302\331<Y\332\243\275\017\241\252;!qs\275\333^\362\275\364\364\317\275\217\216\035\276u\016\256\275\036G\301\275\222X7=\033-\207\276\206\"\223\2753u\356=7\335\372\275\301\217\237\276r\300\370=+\335\320\275k\273\356;\026\257\234=4\325)=\360%\204\276\275\331\005\276\2257\023>\0361\254\276\231\004\250=\306\230I=\377R\337\272\230\277;>\013Js\276\221F\271<\316\020%\276\033\320o\275LI\010>\002\306\345\275\241\320\3258\254\364\000\275\002g+\274\311L\200=Jn\006\275\263\205\374\275Y\305\331\276O\301\346\275\335\331\344\275\336\314\027=\244v\221=\247\355b=\313\207\323\274\353\252S\275\262rk=\274.\223\274\273\035S=^\324\t\275Ld\213=F\207/>\303\350~\276\230UY=\232\265\221\275?a\313\276\323\217\257\274\274\022\323\274e\210\026>\232\334p=\370\211\327\272h\340\021>\002\322\330\272\r\373\r=~\263~\274L?\203\276Q3\237\276\377\231\002\276\267\026\375\2754\212\261<>\240j=K\032\265=\361\000\323\275\206dO=\312\265a\275?OR\275O\346{=\306\0165>\267\372\302\275C\213\034\276f_\306\274\370\311\353=\206\325-\276\276W\214=\274\361\307\275\001\000Q\276Ql\334=\326\346%\2753\223\217<C\241\274\274LV\333\272\032H\305=;\336\236=\276\270~<8\232\263=\312[\261<\265\336)=C\266\005\276\274h\231=\272\\\311<\200\002`=\260\236\016\276\020Y\226\275\034\270;\276Q\276s\275{\217\030\276`\035W\275s\241W\276\340\346\025\276\023h\237\274\312\342\\\276\244!\031=th*\276[\231\253=\200\013\206\276|\223\310=\232\301+\276\274\302\365=\200\034\020>\213\'a\276\272\336$\276\t\223\232\2757\223\230;a\314\031\275\223\343\013\275/H\001\275\326\232\313=L\030\270=\251\314\036\2759\213P\276\330R\221>A\340\216\273\206v\'\274\213\246.<T\330\242<\023l\340\274g\233\334\275\344H\002\275-\310\030\276\222s)<t\022\331=]\321\247=\220\213\350\274\205`\017>\027\350\377=[A\310\275Y\206\330=\321)\264\2754yF=\376\363\333<\0267J\275\311\256\2629\355\206+<\321\304\r\276Q\007p\275\022$P\275\214D1\276\372\3067>cy/=\242k\344\273\013\3269=bL\345=^\272\254\2751\203\020\276n\270\330\275\2315\314\274:\030\261\274\245\347a\275!\377@\276\236Q\202\275)\373\030\274`\n\307<\270+i8\250q\200\275\262j\301\275\226\364\033<\304\017\t=,\340.\274\233?\357=\035-\334\274\215}\273=\247\347\013>.\330\002\276\353\257l< 1\037=\254\336\327=@\301\305=\312\004S\276\n\327\337=\273\030\224\275s[\002>\243\346\213\274\244\r:\274\026\'\032\276\023$z\275+R\027\275\244\035\025\276{\234\255=-R\275\275\302\352\023\275%\346\000=yY\216=\253\265#=\2234\265\275\225\244\356\275\026\305m\276\037$\246\274\3270\271\275\223\313J\276\203\370\325<\331<W=\301\301\252\274p\250\275<\023\255`=Oe.=&\016\201=\267~\214\275+9\000\276!V\230\275\tI\013\275g\331\001<l|8\275U\220\331<\272\236[=\034\263R\2751\312\204>\r\"\313\275\266\260\314\275\027R\020>\177\3246>/i\020\276\355A_\276\220\217\364\273\004\023R<\"\230D\276\355\036k\275\244\262\005>Q\233\t>8A\353=E3\366\274\305\031\013\275\327\352H>eKf\275M\037q=\217+\320<J.\006\274\272\321\302=\203\306X\275\377j\245=s\262\326=O\216\250<\266\370\177\273*l\236<\341dS=\363\271\340\275\202\323\226<\023\336\036\275\031\235\366<\rYI\2760\214\276\273\262q\214=\225)\313\275\204\374\336\275BT\255\275\226_\014\276\263wX\275\024?\234\273~\026!\276\366\371.=\213h\254\274\367\333\267;f\0350\276\313\343s\276\313\313V\275+{\023</\301\231\275\020\211\254=\342b\237=\265\3117>\371\264\202\276J\374x\276[~\003=\361\257O\275\034\212\005\274rw\347=y\252\251=!&\363\275\212\327\356\2751/\001\275AU#\275\211\301\324<A\355\342\275\330O\003\275\202[\336\275\361]v\276\006\335\036\275d_G<k\022\000=\214\321[\273\347\3013\276\246\261\007\275=Ef\276\266\356\370<\263\245w=\037>\210\275U\347U\274\256A\353;\021\2300=#\275\325=c\2133\276\344n\243\274\264$\336\275\371A?\275\270)\210\275&\231\037>\307\232\262<D;\347\274\036E\352\274N\262\321=f\2540\274\203\010\323\275F\224\307\275j2/\276\\v\275\275\014N\034\275\3564\225\274\275Q\345\274\n\374\246\273w\004F=q5g\276J\037V\275\240\357F=p\335\013>\t\227\023=\014\233\313\275\212\001V>\324\252\002\275\224\251\252\275m\244N\276\322\253H\274\252 \270<nr\312\274\016\311t=\241.\272<\026wR\275\372\251\271=\261T\200\274\274,j<{SL\276C\251\031>I\n\263\275\366^\225\275\363\376\260\274lx\253=7k\277\2758\302\201=1wI=\326h\345\273?\270u\275O2\251\274\026\222\373\274\300mu\273\316\227\367\275\356\201\244\275C9\347=\203\365\212>}~\031\275\330\032\307=b\250`\275x,\201=\313\361\271\275\031Ix<\267&\212\276i\273\031\274\341\022 \2756n:\276\001Hd=\'\032\304;\335\302\260\275`\316\037;\362\236\330<\000gl=~\353M\276\220\023\345\275\225\360W=$\0079\275\344R\010\275p\214\236\275\222\206\376=\303\361\245\275\322\305\022\276\366O\226\276\317S\277\275\353\256\314\276\250B\254=\317L\227\276\243\213\313\275m|\t\276K\026]=\323\2344\274\312\022\374=\272\3348\276y\210D\276m\245=\275\275\267\014\276\365\337\023\276\026\357\032>b\0236=\354\3278\276\007\'%\276.\341\253\276wdh=\025\013\244\2756\341\252\274\rZ*\275\347\233\247\2753^\204\275\346\202\217=\326\035$\276\261\'\275=\035\021\256=\336\327\322\275\016\233\230\275\332\357\020\276w\200\302=\217\327\222\274\302\276\033=<\235\177\276\262Y\023\275s\t\276=\227\323\206=)a\234\275i2\006\276~\377,\275\324\347\035=o\003\247\276\005\357\233\276\023BV=YD\270\275P\314\235\276\207\222\244\275D\005\310=\271\331m\275a\305\341=F\220\213\276\335Q\004=<\266\317\274j.x=Y{\343;d\021\3469\320\242\314\273Z\356\210=/\204\232;\325}\204<\"\257\032>3\227\342\275\032f/\276\337J\242\275\"A\007\276\355\025+\276\335\334\236\275 \355\337\275p\357\256\275\322\212\354\275\216\357\307=\243\037z\276\372\276\221=\177\323g\276G\232\360<\353\027\003\273\365\026\000\276p\337\274\275o\t\303<\360D\205=\036.(\274w+J\275\004\022g\275.\n\371\275}h\210\275\201\010\325<F\254K=\367\007\221>I\377\\=\207\035\002\276\377\026Y;\206\"=>\257\223\255=\327\016\321=2\005A\276\301\262m<A\251\006\276\275z(\276\325\223}\275\302\273O\275\010\3358\276\002#{\274\242T\373=\023\247\231=\310\204\200<>\314C>\177\320}\275\273\213\000=3\217.\275W\334\235=\306\335\333<\225\234\342=\217Z\325\274\362\254\275=\237\'\271\275\3777m=\226/#;\233\271\034\275+Nx\275X\323\244\274\346\266c=@\031\232\275\t\311\221\274\002\352\022<\267<\260\275\232\n`\275csI=\005K4\275\376\212\360=Q\332\216\275\032\216!\276\340\000\372\275y\307\302;\356\220\232\275\345oB\275u\243\371=\350&\r\275d\363\203<\312T\326<J}o\274m\225\322\274p\2669\276\246\032U\275\223_\346\275\371\236\257=\225\304\252=m\363\013<7\347\310=\3306\377=\365\373\014\275\256\327\221=\312\360\003\276\000\035T>\030\217\242\275\246\275\344\274P\276\307=\341cM\275\346\220Z\275\312 D<\305C\034\276\023\266\353<?,\336\275\t\025\003\276\241m>\275&\273\267\275\272:\003\276%\223\315=5V\324\275\256\232p=\336\271\374=\223Q(\275\220\260\244=\307\337\017>\266\031\347=\257\207\000\276yC3\275Ai\304=S\364\032\275\233\301\034\275\034e\032\276\321B\016\275=<-=\216\r!\275\327\021\177\275\300\316m\275\032\234\007;\035\307\222\276\374\276\232:\253y\021\276P\375\261\274\340\177\203\275_.R\274\241|\005\276\223<\260<G\356\013\276\250\235\211\274\237\325#>g\216\331\274\373%\000\272a\357\323<\004#\010=\245 9>\276\273\372\274\216Z^\276\260\346\330\275 *\205\276{lA<\203\310\370<\276\021\'\275\261\333[>\327\026\344<\237H\204\275\307\202\033\275\010\365$<c\274\335<\021\231\010>\3555q=\346\\\022>K\t\375<7)\022>:yF\275\315\031\211\275Y\340\321\275\267\236\276\276\223}\341\275\031\026-\275\300p\214\275\247\375N\275\360\255\340\275\\\251\217\276\304~\245>\276\226\003=tg\215\276\344\024\000=\367y\017\274h@\206;&,\221=\033\256\222\276\353\367\016\276\020\tg\275p\352\237=\017&\020>\223\325d\274\214XD\276w\355F\275^\264\010=#\036\253\274\020\002\277\275\326\224l:c\006k=\320$\321<h\226\024\276\351\334\003\275BJ\205=\037F\037\275\301\267\307\275w\251\323=\261\350m\275<\027\002\276\363\335\231\275\307\344\310\275\364\271`\274\236]:=\321v(\276t\222V\276\004\270\262\276d<\t\276L\207Z\275\350\034v=\335\243S=\241\205>\274\230\014\001\275y\361@=\235\222\211\275\330\037f=:\321]>\345vg\276\001\035\2679\250\215F\274\005!\335\2756EA\276\203\023\364\275\022\310\355\274\231Q\327=uF\232\276\217\027\007\274\306{\241=\030\301\321<\2449\005>R\230\3449N6\213\275\367\312\347\275\210_\010\276\257\265\027=\025Z-\276\340J\227=:T\333\275L\213\030\275\312\226\016=\2401\210\275\313\350\270<\327\264\214;vX\004\273\366=\001\275\352=B\275$\322?\274\325x\230\276n\333\355=p\373\021\276\337%\365\274u20=\371\010\350\275rJx\276\000=\333\275\023\333t\275\265u\261\274\362\317\315<U\023.\275\252\300\t>Q\211\t\276\201\222\002\2768\036\371\275\217\255\037>\370\037O\276\236\021)\275\036z$\275}\332\352<d(D\275:\331\302=\261\375;=\257\230\211=\351I\301\275\330\010\255\274mw \276\340\367\030\276\252\306V>=%k=\2277\200=8c\271\274\227\007\t>\314\014>>\301\201\307\275P b\275R\367[\276\201\235\034\276\300(\226\274\2465C=\306\237B\275<m\177\276\251q\021\276\3375==b\000\224\276\177*2\276\002\242\305=\345y1\276\017\0374\2769\260n=\030\326\370=Q\300\225\275O\347\245\275h)\213<\007\235\022<\354\272\347<\346\242\323\274\364u\322\273\273ur\275\022\367K91\235\230\2757\252\204<[\353\234=\322N\262=\337>\276\2722c\331\274\001\032\025\276\247\232\'=\003g6\274\322\273y\275\330\352\224\275\270\034\031\275\342\347`\275\264\275\301:\341C+\276>\366}<\275^\303\276\361r\200=\215@-\275[\303\252\276\311\031x\276[W\360\276\232\242\210\275R\016\\\274\306$\302;5\301\303=pf\340\274\017\233D\274\267\312:\276\267\033\221\2743/\034\276\236n;\276\023\225\340\275\340\366(\275\031Q:\275+\271\362\275\320\344\241\275.\255\022\276\301r\273\275\236,\013>\rf\320\275\371A\327=B)N=\346\247\004>F\013\205\275\242.\226\276\340z<>RI(\276\373u\243\275tA\245=\251\n\014\276C\311\247;\004\253\001\275\333\220\201=\220\302B\276\305\032o<\006\t$<FI\246\276\3277#\276\362A4\276\007\002\350=|7\203;\243 Y\275S\031F=\357\336f=|\025\216\274?H2\274nH\316\274\024\260\005\2758i\036\276\355I\033=\306F\201\275\272\2339\276hr\202\276(q\201\276\2229{\274m\331\000\276_&-\276U\031\223<\355\344\250\275g\263\305=2\240\314:8\211\215\275\2409*\275\263~Q<\267\020\236=\010\306\013=\275\347\023\276\"rF\275Z(\277=\033\t\364\275|Z\016\275\241Q\025\2734L\005\275\201>\'\276\200\275\004\276\326\254}=\250\351q\275\034(\217>\260\253\031=\332\332\031=\225\003d\274\334\337t=\020.\002=\213RL<\243;r:\336\025\226=\362\352\345==\311\036\276\356\016L\276\234Ev\275;[\000=\\@j=\263R]\274~\206\334=A\200\311\275[\\\350\275Zfz\276\305\006\234\275\273\250\035\276M\214\014=\262\017Q\275\023\005$\275$\211|\274\225\305\275\274\200t\214\275`\244\014\276\273-N\276L~\237<\t\0251=\005\317]=\254G\217\275z\233t=T\027O>\334\203o\275\036\310\254\275\245\324\224=\372H\005;\024h+\276Tw\031\273f\006\366\275\242\236\016\276\231\327\302\275\367\332\032\275\366y7\274x\352\311\275Wh\t\275\231\310\260<\357\355\025\275F\275\342\275f6_=?\223\254<u\203A=\032\233\363\273(\210T\274\275\336c\275\350\253\217\275\370\335\324=\364a|=!\213X\276\n1\203\275\233\251E=\257\226e\275Q|Y<\002-E\274N\332\265\275\257+k\276\342\320!\276\376O\207\273j\344F\276W\233\360=(\3675:\244+M\2766\022m=\007i\034=5\031\227\2753\262\020=\240l\221\274q@2\276-\370\236\275\372\023\237\27559\323=\010\216=;2\256\336<\251\367\245=^\177\032\275\353\177.=V\350\214<\034\301\005\275\017\253\350\275\314\006a\274o\262|\275\331\177!\276\265\351\350\275\257\354@=G\210,\276\371@\233=&F#=\021V\334<\234\004\'=+$\251<\224)\342:+\230K\276\306\374\274\272%OR\275\352T\277\275~,V:\347\217\207<7\271\270\274\303^\350\273\337\217\235\275\006\302\230\275\031\367I=\352\363\321\272\213O\177<:\233s<\211s|>\233dc\273k\330w>\252\260\311<|\210\241\275d\023\006\2747}\270\274k^\006\276&\005\220=k\375\033\275\2223\r>)x\255<\254\036\256=\232R\344\275)4\230\275{B\370=c:\'<9\335V>\247\243\367\274\n=\261=\352\230f;9\207\313=\241C\022=@\257\252\274b\tc\275\227\026T\276\177vj=\014\216,\276\211@h\275P\206\315=\014\344\256\274\212=S>\3724\361\2753\3635\275\016\037\231\275JB\013=/\231\370=j\240\026>\323\264\206\275&\237i<6\237@=[\370\321=\002&/=\215\260\275\275]6n\275\330j\n>\t\315\212\275\006b\245\275\212\264\341\275\'\367\337<^\254r\275H\321\001\276\r\262n\274\031T\377\274\203\r\\<O\240\032\276\232\263\\=e\241\354=%\241\356\275~\035M\275y\266+=\272\361\232=E\202\255\2757VX=\\\027\027<\22331\275eJ\177=Z\304\244\274\022\355\022\275#\276C\276|(B\275\007\373N<\335\311I\276\367uo<*y(\276\212\337\346\274\266XC\275\337U\261=\336(U\275Q\344\246<\253\370&\276\227\260s=\270d7\275dW\"\275\316T\254=\341\024\207\274\024\226\203\274\022j>\274\324\227?\274S\352\"\275\331\314\361\275\006\206\211\275R\r\221\275#r$\276\222\204i\273Yir=\201\342\037\276\037\355&=\373\233>=\314\274J\272#\301\222\274\322\316\002>\2630\311\275q\241R=\265\263.=\353\353:=TC\327=+KQ\275\2465 =\260\314\262\274\300-W=\005e\274<\367\303\013\276!3\324\275\200\255\274\275\216\007$\276\312\310\255<J\0358<\275/\026=!\275\205\276P\251\204\275\203\344t\275\274\231\220\274e\003:\275\373x\225\272u\216\n\276\370\241\'\275W\276\303=\277\262$>\221\333\221=B\257\301\275i7\365\274\230s\251\275)\363\023<\025\255w=\240\355\320=\230\204\322\275\341_|\275\242\305\320\275\246{\206=;\306\234\274\245\301\241</\301\313;y\205\213\275Y\337\325=\370*\237\275.\342x\275\261\337\252=\277\247\215\275\343~p\275\320\366\371<M\345\310\274\362^\225=\324\"\365=I\215_=\373\356\257<\236\024\227>\241@7\275>!\024\276\213g\020\2768\314\211=\311!\237:\202\311\267=,\220@\275\202\276\025\276\376)\\=\240\254\034\276\301B\234\275E\331\274\274\372\177\t\276a\366+>\300\032\330\275\357\023\027\276\220\306\221=>\234\231\275\327\002D\275\244\252\023\276\030\033q>:\270\024\276_\254\247\275\355%\312\274O\362\177\275@=g\276\263\257\016>\0378\007\2754\344\271\273|@7\276\274\032\030\276\375\025>\276\350&\365\275Ip\203\276H\005\276\274u;\314=)\0075=\037\341\025\275}\367\367\275C7\001\276\037B\222\276\331H\355\274{>g\276\036x\357;%\223u\275/\246\004\275\245\027h\275\'V\033\276~{\001\275\241\374\275\275q\366\256\276\342\246\377\274\023I\272\275\355\031\035\276\000\374X<\037\361(>\361m\210\272B\254\260\275p\n\026\276V]\264\275\013a\211\275M!\217:yzZ=\235\241\372<%\356\225=!E\246<mp\266=\226^\027\276\217s\026\275d\247\024>y\305\354=\306|\322<e\332\227=j\326Y>\300\275\331\275\006\tg=O4\\\276\246\240\2247C\255\253\274\237\254\200=n/\"\276|KS\275aoD\275\217\373\277\275k\251\246\275&\253\t>`\\\003\276\226\007\352;g\034\366\275\213\370,>\371\017\250\275g\251\003<\226\366R=\346\035\n\276\301\037\335=\030\366\206\273\251\014\030\276 \244\"\274\030\016\341\274jA\237\275\213\337g\275\2602K=\006K\325\274\346\270X=\277\n>\274\007W4\275\201]G\276\024\331t=\355a\272=\022N\246\275\272\255\027\275\311fn\276\212\030\260\274\341(<\275[\301[=<\330\030\271zx\264\275)\021\321<\350\324\207=\242\033\255\273\n\347+\276e$\234\275z\255a=\274\037\345\275L\237\350\274\367\3116\276\216\346\002>=\337\326=\264H\215\275\262-F=Yr\014\275?k\365\275\021R\016\276g\t\253\275H1Z\275\026y\006\273\215\315e\274\022\314\014\276\035\232\224\275\377\370\034\276\350\257\022\275\231F\350\275\353\306\334=\026\002!>\032\341\037\276\373_\207=\242!k;\351\303\367\275\020\023?\275\203\274i\276\255R\n\276y}\221\274+\330\370\275\335\266\373\275qg\007\275\250 \326<\372}\224\276\372l\337\275SVl\276\203,\033\276\324D\264\275zz\033=wDk=N\2544>\226\312\214>\250\347\332\275\032\321\260\275Z\375\223\275\241\203\225<d\262\331=\036\346/\274\360\204&\274\243tK=\311gD\276J\372t;\213\360\220=\275%c\273c\324\303\275M\213\311=\203\367]\275_R\300\275\3773b\275\243I\022\275\014:c>\366 \231;W\324@\275\001\247\205\275\350\242u=\251\234p\275B\224\035\276\205~\302\275\303\311\302\275\005b\"\276\007.\207\276\241\344\027<{\024\206<c\327\200=\\\025\362=\341\343\200=\022\006$\275m\364\274=\244\364?\274\227y\324\275\'-\231<\255\360\335\275\305\267\325;\344y\312=\027\241\277\275\213Xi=\272X*\275sS\320\274\242;\200\275\351\177\246\275V\344\261=\2476\210\275\017\317%=<\037\021\276\037\351A=\262(\'\276\257\240\030\276\325\006 =\320(\210\276C\251\312\275\264\0318<\347)\233\275\'\275L<2$\312\275/{=<\366\307y=\006\201\021\276\027d\237\275\247\274\200\276\253\224N\275\351\257\245\275,HZ\275\360\332\347<\275\271\020\275\227\252\316\274\253\022o\276<\327\223=?o\347\275T\262M\276\342\037\235\275>\005\367<\243\003&\276c\272\363\274\323\273\276=m\332\"\274\203\017\004\276/&\221\275\215\251\221\275\356\\+\276\304\316F<\250\354\363<\344\252\326\275J@\234<\026e\306<vM\244\275Phk=\244\026\220\272\242\262\324=\037\263:\276@R\246\27556\323=\203\215\237<\324,\333=\345\366\005\275\327\311\212\276%\223\211=\200\227.\276\327\007\253\275\236\205\313\275I/\301;\325\376\243\274@//\275\026\3448\275\271V\206\275\273nj\276U\277\010\274\301\024~\276/\356\305\274a\243\235\275\230\344\226\275\n\217\242\275\036\3125=\000(P\276\340\003\334\275\200\301\272\276\247s2\276\223nq\275s]\206=x\327\366<M)\245\275\221&\351\275\325i\304\275!M\266\275\333\200\2769\177t\017>;\316\r\275\376\265\333;pB\227;|\363{=3\231$\276\026e\377\274J\241\250\271C\177\004\276M\201~\275I\245\334\275/Eg\276\200\2712<\016\273\234\275\244\211\354\275ue\324\274\306p\232=\010r\001\275j\216\314\275\211\'\252\274 A\237\275\353\277,;\355;\267\275\n\344\340=\017E,\275-\365\225;\010\252\364<fx\213\276V\202\277\274\037D\257\275\250\374\232=\316\347A\275\2119\177\275\267Y\014\276Kw\027\276C\314B\275+*\231\275\275\361\310;\350`\252\275]Z\202=\373,\270\275\205P\340\274eL.\276\306\027\212\276\372\255\304\275O\\\222\276\363f\"\276\t\030\332\272\345f\007\275\\\243r<\227\351\273\275>\266\374<iW\'\276\205\327\021\276\354\324\342<\304Hf\276\324\370\214<\217\235\013>R\360\017=\177\211Y<Y\216\225\275C@\370\275\230&\272;~\267\004\275\343\226\002\276\r:\232\276\201\254O\275\362K\356\274@\212V\275T\321\244\274\225b\351<\256\303\203\275l29\276\253n\r\275\004Y\267\276mh\271\275g\242b=f3Z<f\2742\275`\346o<\254\243\347\274\2367F\272\375#e\274\035\241\377\27404\303\275\336)\001>\212\365\375<u\357\026>\033\253\246\275\\\033g9\236\255\035\273C\320\306\274wg\261\275e\330\316\275j\255\004>\372V\227\275A\0163\276j^V>\3442\035\2768\002\373\274}\226\305\275\355-F\275f\277\215=\360\007\241=\363\035\322<\017\336\357\274\035\313F\275\273.\007>\250yj\270\035\273\223\275a1\244\275\032\321\025=\200QQ<\325\241\323\274\240s\310\274C\364\021>I:\"\275\014\'-\275B[\323\2753\304\232\274\315\330\001>\014\345\224>\320\355\322\275\323\335\030>\304\376\343\2757F\317<\333{\333<\006\267 \276\220y=\275c\000\343\275\256\020>=\003\237T=\t\3709=\377\220D=\026!\246=\321\353\r\276\335t\217=:\030\024>v\277\352<\244l\373\275\213N\271\275\023\354\034>\207\013\300=\300\370\204\275\253\375\021\276\237\277\021=\021 M\2751\026B\276\265g6\276\350[\261=\321\035\234\275\256\355\000\2761\252\034\276I\\M=\366\375\353\275\002\366\332;N\301)>\362\322_\274h\254\310\274\204\321\321\274\242\t\302\271\221G\245\275\257`\340\275]\351\207=z\221\365\274\205\0069\276\237T.\276\250\335\243\2725\362\232=nq\214=\320\001+=\254\310}=%\017@=e\210\026=\3042\213\273\276\350y\275\315H\372\274\245\024\341\275\017\265c>\035\340g\276\030\206\245\276?\3324>\225\000\212\275Q\257\221=5V/>_<\322\275\217\226\363\273\036)\246\275\253q2\274\376\206N\276A\025\031\276\254k\275\275\341\316[>\3312\273\275{\262\327\275\350\215\355<\005\367\234\273\260Lf\274x\013\263=k\300\036\276\004#\200\274\301A\217<S\367\227=\302\320\017>\"\327`=,\326\232<\343\222\236\275]Kx<\021=s\276!\231\250=\304\342\233\275SW`\275r\217\333\274\001\315#\274K\005\303\273\354\271;<\337\317\225\273\021\247>=_\235K\275\277\236\234\275\266\370y=\231\252\311\275\204R\326\273\037\266\303<\273\243\265\274\021\201\201\274r\202\235:3[G\275\371\"\235\276l\237\344=\3471s\2751Rd\275\2765\346\275\\\025e\275t\344\331\275\3472\020=\257\207\024\276[_x\276\247\347%\275\217+\230;kNU=*\244\223\275w\220\017>\375(P\276\244\210\033\276cg\366\275 \332\266\276\263P\311\276\357\004\255=\234H:>\325I\007=\243\035\214\275\260]\263\275\350\177C;\373z\026\276\354\034j;\200h%\275\350\330\375\275\264B\310\274\360\204\311\2752\210N=`\247*\276\366\362\233=z\347\337<\276U\236;z\260^\275\231y\031>s\354\346\2758\353\221\275u\013h\276\034y\034\275\305L\n>b\342\"\276\357\027p\275$\245{\276\316\001O\275P\220\031\276O\037\n=:\007k<\202\276\341\275\346)\212\276l\327(\276Dl\352<\021qF\276\344p\331\276\204!C\276\347\034\253\275\250\237=\276bF`\275\005\254\243\276%\342W\276\257T\023\275\310\263a\276\345>\t=\271m\265=&\341+\275\016\202\354\275J\234\337\274\t\'M\274\260\002\263\2752S\227\275\034OX\275VJ\220\275\030j\036\275\231\370\265=\000\314\361\274\022i\332\274\367\222\364\275?B\276<\307z\341=\353By\276H\333\217\274\222\003<\275\027$\213=a\217\202\276\304\257\245\275\256\333\375;\250\027\203\276d\325\230\275\346rV=\365\225\372\274\247\315_\275\255a\272\2726;]\276o\223s=\336\032R\276f\276\342\275\2255\317\275Z\322\225\276\275.\371\274\300\177\221<\354\214\316\275\013\227\356=\244Q\025\275\371\307S\276\343\377\266\276M\333\005\276\324\025(\276\2207\035\276\207\016,\275\021\306:\276\3606\220=\256j\260=l$\004\2760.[\275a\225\365\274\352`S\275\'\353\032\276\"i\007\276\247\203A\276\032+\257<\005vB\275\355J2>)\327z\276$\357p\275\262\036\314=\003\037\264\274\201\275j\276\217\003e<\204zL\276\375*\014=J\212\242<\222w\370\274f\253\247\275\240Yw\275\371Y\273\273\212\372\200<\310\273\304\275\222\001\261\275\0023\353\275\342x\335\273$\270~=\352?\305\275\370\341~\275\nMM=\363V\242=))\220=\006T,\276\374m\225=*\354\t= \3423\276a6\032\276\026\235?=\1770\014\276,\335\365=\254#\177<O\240\332=;\236\361\275\362r\366\275\005TD\275 G\030\276I\236\257<\240]K\275\364D\306\275\242\3154\275_\351\235\273\270\336:\275~\350\211\274g%\347;\201\213\243<Y\307\023=\356\314-\275\017*\311=\254h7\275ME\320\275\3211\256\271v\371U<\352\306$>\335B\362=\032\270\314=\305d\250\275mT\241<\3375L<\247\365\374<4\350\327\274\217V\\\274\206\335\220\275\233\310{\276p\007\010\276\026\227\000\276r\321\246\274\237+\206\274\"I\324\275\313\277,\275?\036n\2742il=d1\254<\027\341\213=f\002F;ATB\275\347y\177=\032\034\002>+\373V\275\227\215\226=\261|\224=\025\275\376<\036\235\222;\004JW\273\210x\n>u\226\320=E\341$>}9\020>\257\265,>\333\206\004\276\210\321\017>]\226\035<yb\217\275\360\211\r>\030\330\212<\003W}<W\201\032\276\025\206L\275\200~\r>\246\264\377=\334\346\302=\376,\"\275\256\342/=\177\357\266\274>\010\016\276cvZ>\221\306\006\275\006\352\217<Sn\213=\344\361\345=\031\360W\274\266q\253\273{\335\203;; \351=(<5=x\3230\276\217\337\334<C\376\032<\004\000\t\276\320l\016>\342\341_=\214\014\243;\261\275o=3\020+=YS[>\346\365\274=\2731\256\275!t\020\276\304\017\245\273i(\213\273R#V<\352.\n\276\022\021\003\276:\362X=\222\343P\275\2209f\275R\013\360\275U`\347=3\367?=%y{\272\345U+>\204\320\214<\005\347\232\275\327\340\020\276\362\350\363<\371\223\316\275Q\033\317\275\310HH=Z\341\236\275-\310=\274\354\244\337\275\337\360K\276\271LO=O\367\235\274?`\303\274o\353\254<\262\272{\276\257\001\377\275\207 \204\274d\200\223<\247k\013<\241\316\336=d\246\275\273\351\274\246=\035\022T\275\327\272=\275\214\302\r\275\214A\350\275\267\315\322\275b\"6=#o1>\324\316\207\275\177\317\275\274}\037%\275\270\327\232\275\277\322\375=}\017+\276\r\374!\276&^\225\275\336\231\346<\255\036\306;f\231\305\273 \010\240\275\272\034\361<i\255/\276\224\203\356<\250-B\275\247F <\204\320\010:K2\263\275\370\227\016\276FE\037\276\354R\244\2720=\365\274\273Ho\275\352G\216\275\010\373\255\275\232\370\226<(w\342;\010\254\233\275Z\355D\272d_\350<\357\\\201\276\014\356\350<e\342e<\243j\241\274\353o/\276P$\204\275f\272\033\276\203\241\237\273M\036\227\276)s\271\275\377\243\023>$L?=\313\033\201\2757\307[\276Q\013\027\276\302\366\352<#\177U=[p\010\275\350\242\206\274M+\326\275G-r>\316\255\031\276\241\340\\\276\253\005\227\273i\257\023\276\372h\034\276\211\257\002=\376<\373\275\310;P=\016\364\312<\223/R\274!s\026>0\234\265=\347M\014\276\032\332K\276\275\215\255;\205L\301<,*\334\275T\3413=>\303\366\274p\370f\276\240\323\342\274\016*\205=@z5=-~6<\'\004p\276\2514\225\274\311\317\201\276y\316\022=Q\026l\275\303\320\361<\306\332\211=\234\361r\276\020\n\227\272\205\320\213\275\213\221\374\275\356K\236\274\225+\255<t\031\344\275\370\324\301<\032l^\275\'\217\260\275\301\227\201=6w\270\275\272\234\204\275}\277\234\274\234F\262\275>\334\023\276Z\345\240\275\267\315\267\276\324\243\213\276F>\240=O\303\247\276\356\272n\276fL\277\274(-\210<\216\3348\275j\244;\276\254\247\270=\370\337\214=\315:R\276\2070\246=,R\206\276e\312\211<\360\333\234=\335\237\244\274c\017\002=V\217\212\276a0~=F\034A\276\033\272\375\274-\"+\276\356.\317\275\307\261k\274\014*\031\276X<\254\274\002s#\275C\205\321\273\004\272g\276\333\222\207\276\'\307\276\275\373\236\300<\3036\355;\272\365\363;\207\231\236<\240*G\276\300mw;\254\n\360<n\265\264<RV\202=\002to<\'5\264<~-h\276\005\203\350\276N\006\024>\311\025\'>\256\250\010\276\355\341\267<\272\271I\275\232\341s<\020\264\036\276\355\r\235\275*\236\217\275\313\264\206\275O\363W=\240\275\032\275\261\344\325\274\300?\030\276\301%\r\276 a\222\275\345\241\247=X\'\310<\022PD\275\230\373\007\274y\301\361\274\034\304\204\2768p\301\275\016\037\023\274=\220\272<\271\031/\275\346)@\276\335v0\2765<\236\274=Q\t\2749b\030>\232B\336\275~\201\002\276m\222\375\275ij\002>\301#Y\276l\244\340\275O\366\221\275\200\004\030\275\230!)=\364J\246\275fnU\274\226\256\271\2758_\252;\327\260\300<Ji\344=JC.<\320\025\217<k;*\276w\004\000\275\361#P\276\006\323^\276\322\221\203\276\004\317j\275\326\355\217\276\230M*=\344\360\224\275\227\202`<\334\025\306\275\301i\"\276\r{\272=\257eM<\356\232\315=.zg\276\0232\252=\024/N\273~\342\367\2747\244\253=\346IS\276\257\241\241\275R\345\363\275-f\270\275\371\240\306=\255\322\035=D\254\001<\260\024\034\275\321a\226\275\214w\222>\177l\263;\253y\244=\tl\222=a\317\320<\1771\360\275:\257:=\334#o\275D\204\204\275\326\324\236\275S8r=\225\251=\276\245\263\231\275\233\277n=L\254c=\"\270\263<J\004\033>\\?\300\275 \261\227\2751=\376<eg\035\276\300\357\305=;~\004>\373:\330\275\002\326\006<\231n\021;\373Z\'=T\221u={\311\235\275\226k\245\275yh\222>\0228\253=9\305\026<\231{\003\276j\362\013>\312$\315\274\245\351\034>\360\024\001=\'\271\373\275\377m:=\216-C\275\240F\363<Z-+=\240\344\255\274\347\332\274\275Z#\215=\230\370\000\275(\241[\274\342\377\264=\217S\227<\373y\312\273\274\223>>\360{\251<\371\361\256;\305\257\204\275\356g\331=\257R\250=|\346V\276`\001\322\275\254\032>=\013\237\007>\311\213L=\222\005v=\270\\\n\276\207J\243\2755\340\247<\252KI\275\252\261\207\275\"\027\2449x\025\207\275{\226\214\275\225\257\275<\353C\271\275\021\356\301\275\266pe\276\004\324\\\276\013B&>H\370\212=\227\245x=\005\321U>\r2->\331\265\003>\356C\252\275\003Q~\275\305\034#=\376h\324\275\275\237p=\027\334\247\275\213\351\303=\271\364\030>S\251\220\275\364\324\336=@\264\241;\301h\215<\326\261D=L\013\205\275_)\233>\0008c>\305\233J=9\322\316=\377\034\265\275\200\212l>;\360\021>\255k==\363!\255<@\223r<\0030\014\276\251\315\025>\202\221\273=\303E\"\274v\325\232\274~\272\201\273w\275M\275Kx\\<\335Y\037<Et}\276\216\343\000>(,\367\275\021\303$\275\252\3713=$R$\274\217xS\275\030_\016\275\341\036S\276W\365\340\275\216\037\342<\347\223Y<\2659;\275\357\215X\276\267=\022\276`\271\262\274\271\024\231;\343 A\275\330L~\2751\215\341\275\350\215;\275\nHt\275?\302U\276\260\034\354\274\235\333I\274\356\'\207\274+O^\275\277\211(\275AD\236\275.\312\357\274a\213\326=`\203\327\274R\361>=M\316\304=\244\223S\2769\366_\276\231\205\001>\037\225$<\304fk=j\265\364=\276\254\255=\230\275\037\276\234\013y\275.\\t\274\177\360B=\3617\231=X\036\332\275T\237O\276\212{\246\2742\3450\276\251\240\254<\006\003\010\275\331\355y<\'!V\275Q1\241=\250\374\376;~\356\r\276\031\204\341\274\032\r\207\275Q\354\333\275h\037\203\275\376J9=\347\366\353=\032\204\200=J\022\262;.2\030=\327\360\023\276\032z\336=\214~]\2756\361\022\275\333\370v=\002\2238\275\214\"\267\275@\036\300<MI\244\275\216r\254\271\337\346\220\275\200\207\035\276\177z\305;\355b\203\275&\277_\275K?#\276r\310\347\275\202\343\213\275$\356\025\275\213\305\241\274\177\025|\276!\2108>\006\016\204>r$\004\275-\323\214\275\373\244\252\275\365&8\276K\244\342=a\377\313;\217\254\034\275\273p\365\273o\312r\276\256x\022<\230\243I\275\360\214\344\274-i\342\275\321\r\243\275\002\336\221\27654\207\275\212M\272\273n\345\010\276\315\371\025\275u\213\230\275\016\271\221\274\016N\363<2\230\250\275\357\330\214\275\027yP\276\215\342e\275\344\310(\276k3q=;\302\256<\316\277\030\276\225\005\314\274xo\022>\250;B>=.c=!\016\332<\371\206Y>\320\263u\276\177\235\266\276\313\321c\276E\373\254=\303ko\275\315\000i=\354j[\275\372^\212\276\240\215\306\275\205\254w\275\3740p:\035\332\352<\'\177a\276\177\016\351\275\027Hf\2754n\023>\"\277d\275\323\027\270<\306\035\240>O\366\014\276\202\276\373\274o\367\001>T\024\331\275n\313\014\276\354I\377\274\022\032\007\276@P\257\274*\200\212\275VA\004\276\345}&\276\002\'\311\275s\346\353\275\257u\206\275T\213 =\267\231-\276\026\245y=\250K\373; >>\276\305\323\026\276Y\032\235\275l,V\276o\277O;y\"\033\273\335a\246={u\247\275\201\252\200<\013\235\002\276_IH=\234\220V\275?\267\325=\310\334J=g}\244\275+\361\004\274b\344\355\275\356\235\204\276\315\221\223\275+\274\304<\265ug\276\n&\361=\257\354\t>c\373\314=y_\004<\034\273\206\276\377\306\235=\276&\306\271\356\324)\276\336\210\345<\017b\032=\252\351\005\275\320/\005\275\203\312O\275\310\326\177=\233\254G\276^\311\307=\240\320\341\275I\343\014>\023Q+>\356\247\226=?*\204\274K]\314=\221\275\230>\016\273q><\354\257\275\332\035\221\275\336\352\r>7\357\241\274\244H}\275mW\360<\223\320\235\275]\324\221\275<H\361=\340\301\267\275z\225\306\274;g\255<\2430\337=v\023\334;dvp>6\256\215\274\262v\020>\336\033}\275K\323\345=\233\323\360\275iB\033<\035\007;>\024\357\300\275\326\213r\275\021\330P\275-\347\356\275\274\026\333\275A\363\351;!\331\270=\322o\026>\007\212\317<\345[\337\275\207\037\316\275\235\236\232=01\220\275PNP\276\310\334\322;\367\245\"\275\241h\177\275\240\203\217=\323\023\001>\315|\201\276H\377Z\276\230\371\003\276%G\375\275\201\372\337\274)\251\314=d\270\304\275\035\364\320<\316M%\276F\323\261\274\221\240\227\274\001\351\241\275\266E\260\275?t\021\276\316\316\n>\242y\014\275\313\363M<\365\354\037>,\371\313\273\355\336\207\2750\210\252\275\374\373\327\275D\202\262\274\331P+\276\007\262V<\312\2217=\222\354\264<\203\'\356\275\2706L\272P\354\301=cG\001=DA\222\275\270\305\017\275C3\310\274gi\243\275\373\275L=\014\237\036\275,\333\362<_\375[>\304hy\275\257\211\013\276\353\340\314\275\310%\204\273\017\363$\275\310\316\250\275\344\367\242<\362~\336:\26218\274:\311\276<3\003\353=\366\262\220\275\267\360\037>\370\301\264\274\256\275\253\275>\'\335=Z\211M\275\303\363F\274\340E\200;\247[\">\354\367H\275_~\343\275\361\235X\275\033\201\325\275k\352\211<\2204M=x\341\313\2759~\357\274\214\263\037>\203\207\027\276\2378\030\275.\247\300\274\377\361\307\275\\v\260=\230%f<\240f\275\275\303\355\250\273\n\354;=r\351r8\'\331}\275K\364\264\275\000\333\345\275\306\034\273<~\377\314=\346\217\355\274u\317\343\275\231\264s=x8F<\214\246\322\276\007 \024\275D\247b\275\371\202\202\273\022x<\275\370\006\356=\372\373@>s\356-\275\224\'\r\2769i\220\275\206m\353\275\340\266x;\345\320;>0\2177\276\306\2547=B\020\227;\367\262\306\275Vo>\276\321h-\276\267px<\344\312\363\275\242\317c=\317QJ\276\374\313$\276&\202\231=k\305\005=\033\355\207\274G.(>\305\365\342\275V\374\026\276\244\024\372\274MrG=\256\016\364\275Q\010\027\275?\274@\276\260cB=C\312\224\275\261\226f\276\250\356v\274Q`\245=[FA=[\273@\276:\370\013\276\376\027,\275`S\020>\253M\205\275\356\324\240=m\361H\276boK\275\275\n\037><\253\371=.\0063\274/Z.\276\220\345\317=\366k\"\275\002j\357\275\262\277\215=\306\364\204\276\274\022Z\276\222\\\303\275\235>\207=\025\262\233\2767\341\253=U\243\226\275\300TU\276\322\237\364;X<\246=\235\274L>$\005l;\305\222\202\276+\344\246<E)_\275\245!\321;0\021\234\275\360\3234=\000+\035=\366\227\261\275;\302\310\275h\2768\275\307\377\372\275\315\237\215\275t\033\203\275\313\332\341\275\267\233\207<>\350\326\274y\304\223\274\337s|=\252\305\025>\016Fe=\345\203\014=\014\265\235\275\330 \267<\342V\021\275\267!\321\275\006\177\313\274\3341k\2766\240\215\274\344\263>\275\304\367\227\276\307\341\307=\206P\221<\244\264\317\274h?\217\2758\3420<\241\207\312\274\365r\224\275\353\336%\276oS$\275\310\312 \276k\374\016\275\354\357\212=\232\360\313\275\334|\215\275\221\235\226\275M\026^\275\332\207\025>?$\r\275\307\364X\276&\264+=XU\366\274\274\026`;\355\342(\275\027%\006\276g\243\251<oB\245\275\326\220\312=S\344\035\276\264\332\302\275K!c\274\301\235b<D\374\233\274\342\266\002=,N\251\275\304\007\257\275\007*\215\275\th;\276\313\300\277\275\200\351\273\274\222\251c\272*\324\210=D\276\254=\331\311#\275l[\313<\236\r\216\275\270\330\232=\241*\322\275\247\361\004>\203\023\307=\360B\\\276\310p\376=\243\322\265=HL\263=\265~m<\234H\226=\377\224\244<\341q\362;\3254\233\274\301ci<\n\304\327\2750\346\003\275\000\204\274=\017\325\270\275\030Er\2769\003\302\275\"\367\246\275\347\227\016\275g&\201\276%\205\331<\214\204\321\275\020\272\351\275*\030\314=\243\\\332\275\335\0327=\022\240\234=z\207\264=\357\362\204=\362&\344=\257\002:;\232f\356\275\360\223\261\275%\352\230\275\347\255\373\273\010\002\037\275xN\375=\237\265\215\275\355D\005\276\210g\235\274\206\030(\276\265\371\'=\366a)\276\332\334\\\274c\224\037\276r\207\313\275\272\031\316;\244\351\311\275\337\261\'\275G\341\230\275p\027\345\275\334\264\233<\312\366(\276\016\257p\276\026\301\354\276\373\342p\276\244\202%:\n\275A=\361\311\217=Es\344=X\217\251\274\367+\014\276\310r\273\276\rF/\276fl$\276\252J\n<\264>\016>\326?i>~\031\253\274\371\276\203\276\0326\215<\351v\017\274\035eG=F?[\276\244K\361=\212\215\316<\363\251n=\305\206E\275/\234R\276\362\343D\276b\260>\276\334\007Q\276\032l[\276\360\245y=\342\325\250\275\tt:=:[H\274K\341*>~\030k\276\034\237\212\273q\253\254=\240\377\311\276d\305\277\276\200\356\263\276\347\351\362;,\242\364<\204\320\224\275\216%y\275\242#\257=C\264\242=\233\217\226\275\303T\330\275\243\253\336\275\316\024\256\275>\005\233\275eP6\275\300\214\035\276\017\234\203\276\237\'\367\275~\264\240\275P\266\341\275\037\261\001\276=n5>pq%<)\227==\3268X=\265\205\033\276\265\264-\275\304A\260=,pa\275\023\337\266=\020\202\203\275\255\211\240\275~x\273=\305\241y\275\'\213A\276\313\307\350\274\030\177\037=\241\205\336=]),\276\247\324>\276Kl\245\276\355h0>2d\032\275\233\027\001\276L,\242=\024\324H\276\346\355a=\317ik\275\352\366\332:\"\004\210=\020\3731>:t\010\276\n0\246\276W\007\000\276\010\345g=\325\240\270=Wi\037\276 6\013\2744\302\204=8\320\001\276\n>\r\274b\272\377\274\206]\216\276\346\003\243<~e\202\275**\025\274\254KN=L\210C\273\331\240\205\275\2572\033=\243=\250\275\313\371\277\275\340`\007\275\243\312\331;\345\330\004\276\310\352?>bG6\276\202\355\010\275\3420\247\275\254k@=Q\034\226\275\023\341\364\274\025\003G\276\006_n\275\307\212J\276\367\353\331<\241e\340\272gq\263<\315\243\t\275V\030\252\275\033\245\355\275\342\316\217\273\346\\\212\275\242G\030;\216J\263=\307\246R\274\221\322\311<b\026r\275\334h\211=\017\343\345\274\017\301>\275X\206I\274\214Eh\276\271\005D=\243n\245:8\2615<\375K\211<\335\'\373\275}\262>\273\273Zh\276E\233\n\276\364,\026\276B\315\354\275\274\265\333=*C\212\275n< =\211\233\230\275!\213\327\274u\003\302\275R}\252=~\323\321\275@\367)\2769\365\373\275_i\032=|\320\013>\034\334D\275l\262\320=\022\204\207=(\300\223\274\300\236\332\275to\265\274\017j\311\274\302\365\020<M\361\261\275\024~d\275_2P\276\356Z\352=^F;\276\354v\007\276l$\235\275\275\300\226<\244t\\\275OF\200<\026\247:=\001\274\244=Jg\016\276\217(\022\275\367D\010\275Z\225\240\273@G\275\275O\365\'\275\262\263\020=={q\275\263\037\027>:w\250\274\317\030\253\274j\177M\273\271(\256=Cw\241=\214\003\017\275\206\005\003=\031\3200>\341\370\222\2755\305\316\273+Z\307\275,^.=\332\'\304;\313\214\340<\270\r\032\275\\\210\004=\240\330\204=v\214\021\276\262\006i\275\023\363\n\275\355c\021\275*\361\214=\351\016\037=e\270\261<=h\245=\r\000\226;\351\2326\274\366\316.<u\2047\275W\272\344\275\250\200\023\276\375\371\033>\214\303\375\275\002n\306\275z\202O;\27764\2757\335\276=\272\241\245=\340=1;Q#\n=!\t(\275E-\033>\2461\037>\005w\024=,\374\245<\254I\177=\207\374?=\"=\226=2)Y=\3547E\274a\222\271\275T\277\273\274,Bh\275\0053/>05\377=4\252\300<\252\241\203=\2553\202<\220\224\005\276\330\363\316=\277{\364\275\343p\241=,R\332=ib\333\275\201\217R\275\033\2467=\331\207i\272\210\030\317=Fjg=/~;\274\274\010r=[[\250=)H\242=\370\020%=d\350T\276\330\035\322<\355\216\253\275\361f\337\272\205\217\025\276\345\366\202\274Sw\205\2754\340\002\274d\\\313=-\250W\275\375\261\010=\000\206-\274\252\237\303\274\255\314\371\275},\316\275F\272>=mB\010\276V\310\331\274pKi=p\256@=\246\235\277<\322\365\300\275^\377\350=\256\357o<-_\215\274Sf\r\2759^\021>2\033\321\275\222$\026\2753\'\312\275y(g\275\372\206\362<\304\305\022>?1\227\272YY==<!\364\275R\357\374\275\232\216\035<\366\312\034>\277\2747\275\217\372\227=@\302~;;\340\032=e\321\t=k{\265\274\314\366\311=\232\270N\275\323\037r\274}\221\277\275$\230\177=\340|/\276\0375\232\274\206\336\370<On\t\276<\317\013\276W\276\'=\363 \'\275\001\346\350<[\303L=\346\200\305\275\257\226\\=\264<e\276\003\342\221=M\024Y\274\255\0342\275\235e\322=u\326\364=\010\221$>e\211^=\363\327\203\274\222\341\203\275\355\324\307\275\374\322\362\275{?L\275\242\243\245\275\352\rX\276q\005 \275\tU\224=T\354\022=L\312\205\274\354R\n\274B+\237\275\226\003\342\274\364\327\363=E\265\213<QJk\275P\264->\375\020/=\257|\207\275\362\272\\=\017\177\t\275\374\315z\275AoV=5f\025\275-8\345<\'|\332\2742~\313=\317\"]=\334\002-\276\212x\234=9^\367\274!\301\210\275\347\377\377<1\010\214\274\341\226\374\275\243\035\231\275\365\221\034=pe+>\233A5>\271E\243=\366\356\363=b\347W\272l\021\271\273W\225$\276\234\377\275\275.xv8\365\334Y\276\204\332\210\276\323\244\260\275\324\225\037\276E\261 >-?\365=\007\337>\276\317\370\257=\r\313I\2755\2458>\254\0134>\235\317\266=\034F\243\275\307z\271:2\275\034=\3745$\276a|g<\342\201\332\275\332P\230\275\024$Z\274 \340\372\274\"\025\217\275&)\243=\3349s\275:\004\277=\376\262v>z\256\201=\232`T\275\204a\000>]\241\367=\342L\030<\316\343\r\273\313`\376\275\300:\007\276\216\266R=\265\224\250<Z>I\273\322\357#\275\270J%\273\333\254\306\276\275\216\336\276y\357\212\2759\327\365\275\030\205V<\351\267\212\275\206\224?<\324\307\r\275k\201\000>o.\240=\277-\373;\371T\272\274\014\031\346\275\025m,=\213\351\317\274\263\226\\=n\264D>Za\216=nA\346<\275\005\006\275\365\342\326<\306\340\354\275\355\370h=\374\212G\276}\002\317<-\031\373<6\255\020\276\262\223\363=\264\234\244\275\010\007T=\237\233\233\275\303V\247<\212{J\276\226\010\320;=\255\315\275\350\256w\274\354\0012\276G\363\351\275O\277\031\276Wz\274:\016\370\303=h^\312\274\033\037\320\274\330\275\215\275TS\034\275\021\334\250\275\3378e\273\315/P<\256x\275=\010\377!\2749r\261\274&\205\235=3-I=\332\214\340\275a\265\343<\002\\:\276u\004\030\276#-\275\274\020\"\322\275rN\"=\024@\305<[%\036\276~Q\032\274\315\371{\275\036t\265=!,\335\274\377\373\332=\241\007\305<O>a>\302\233\363\274kz\276<n\030\335\275\003\356\020>\207IJ=\224\255\0079\205n7\275H<\215\272\333h\200=x\324\354\275a%\222\275\246\302Q\275\250\177\330=\365w\024>\272\332\316\275]\003\237=\210I\306\275L.\013\276$y~=\"fL\2752\014\373\275\237\342_\276n\244M\27507\362\275x\277\204<\017\255\000\276\027\356\234\275\3736\377\275\254\232\211\274%\351\r>\233;\317=h\346\316\275\361\277\221\274/\303\262\274\365\304\377\274\2627\275=\\n/=\241\222\225\276\262\321d\274L+\242\274?\276x\275F\033\217\275iX\032<A9\317\275\021\270K\275/\233\030>\225/\363<p\214\344\2729\262\322\274\351/\350=\355C!\276\301\201\367\275p\273\261\275\017\331D\276\033\226\210>\030\332\260=\014\204\360\275yMN\276\022\251\334=n\252\017\276\302e6=al\260\275\230\220\210\275\263K\216=\312\375\324\273\025\034\252\275+\326\013\276\204O.=a\217\'\276g@$:\214\276\203\273\233\364\353\275\212\225\241\275\037$W\274\200A\304:\241\0253\273\314\371&\276\355\210\265=%\037y\274I\330\030=]*\032\276\010\301u<\016*\270=\230$z=\343(/=\037\r\006\276r\243%\276?\316\003<\211\307\333<Q&\225=\317\375\307=\035\215\244<c\347\013>\3718P\275\237\222\212\275>\317\335\275\306\026\254\275!;D\275\220\372\366\274M\351e\274l\343\217\2755\345\346<\277$/\276\016(\221\274\245!\021\276)\352n\275\215\263\213\275eh\324\273\325\2717=)F(\276\237\325\363=\204\336Y=k\267X\276\345\270\340<\265p\264<\240@\360\274i\217\273=\325\370\030=#\230\356\275\351\376\272\275\360\334\273<deW=\313o\206=F\314\255\274\375\252\220</h\234\276\356L\203\275\200\263\266=\026[\247<\320\317\342=\364\264\025=^\267\326\274\026j\023\276\263\0138=*\304\320\274RM\256\275\020\361\246\275\330\256\274<Y\014\221<\332Y\222>\260\214#\275\223\325\n\274\366xw\275\251Z\307=\337/\014\275Y~\346\275:\251\031\274\036\244g\275P\027n=\227\360\215\276)Y\201;\2736\213\276\357Y\340\275\364\3558=\016\033\020>\274\254A=\032\313\023=J{F=\356z\014\275\"\204\330\275<\177\341\275nV\'\276\256U7\276\334Z\254<\257\034/=h\n\000=\374_G\276\314,\005\276\212\035\233\275\301\200\'\276\232\220\032\276e;\307<y\2139\2767\200\004>\256I\257\276\216\220\026>\200\330\233\273\357\305\213\275w\220:\275z(\005\275m\033W\276\n\004\355=\327x@\276\2322y=\227\371\220<\242b\247=\325\005\250\275\327\231\235\274\006\264\211\276\034\"\355\274\254n\223=Z\260\351=\246\255\004\275\375d=\274-{\307\275\361=\024\2753\030\344=h_\006\275\3724\364\275\231\327\214\276\250\241\347\275\376\302\"\275\232\037\032\276\243\270f\276\301Y\201\2763\304\360=\027\005\036>\204\0168;.L.\275Z\241\027\275_\033x=T\336\"\276\034\341*;\356\351\225\276,_\227=E\273`<x\336t\276\n\352m=\320\202\246=@\243V\275\031C\214=\333\345\347\273\370\000\003\276\354\035\201\275t\301i\276\334\337B\275\300\277I\276\340\206\213=\270\331\333\273\276\236\236<\354\236\327\275\272k\270<\340\332=\275\257\212\001\276\355I\376\274\240\025\261\275g\236\246\276\014\013\033>\020b\244\274\340\373\210=\233\026\274\274\243p\360=_\226y\275\362\016\254\274c&9\275\243\036\246\275mD\271\275O\334\375<?\324\357={\247\334=)\245e\275\"\0222>\306,\325<\313\320q\275\222\212\272\275i\002\343=\327z*=}>\273;3\300a=\252}\306\275\0210\365\274mQ\356\275R\250\205\276\213\"\272\275\242v\322\274\311\025\000=\024w3\275!\026W\275\310\371\356=\032\032\254=\246\372[\275\005\357\022\273\034\256\036\276\226\354Z>\237R\207=\326\203\244\275\324Re\274\303\362\261=\260q\005\276\032\242%\276\376\357\244=\242W\273\275|`6>\360\'\024<\250\335\t\275-\272\032>;c\347=\236C\362\2754W\r>\260#\357\274\240\332\003\275\212\213\335\275\373w\004:\343\336\200\272\357\263\230;\035\262\253;\374\327\215\275\364\007\211\264:\235\n>\331Ac\275\204t\251\274M\2046<\321\256\013\276\241<\226=\351\215\314=?\374\274<\345\037\245\274\313\345\007\276$PA\275<,\323=\266b\n=\032\303\246\274\337V\304\275d0\177\275\304\373Q=v\027\266\275\350\307\220\274\004O\276\275\311NS\275:\224Y=\337\245\355<\375\023\211<|\220\267<\\\314?=YP\000=\215\320\014;\007\014\327\275\317(&\276\213\326\227\275A\2611\275F\016\231\275\331\272\002<\334\235\243\272\240\346\335=$\222\003<\3624-\276\013\202\205\275/d[\275\322V\002\276\314I\241\275\272\235\017\2754P\335\275\037,I\274\311\235\006\275\321\ta>\253\250\271\275^9\365=\3507C\273)\\\332\275\247!\303\272\310\034\360\275c\3523\276\r\010\353<\240\335!>\017\245!\276\210\310\256=\007#6>\000\246\226\275\300\303\237<6\003\360=\\6\256\275\177\t\025;\234\353\n\274\221~\342\275\322gM\276\'WN\276\353\261\006\276\336\374\254\275\021~V=^\330\036\276\314\340\037\276\231\212>\276]\260\177\274\272\214\304\275\236V\227\275\2318?=\314\2277>\213r\356=\271\373J\276\023\367\270\275\230s\266\275j\267\031\276!l\233\275#\321\353\275\324\222\233=\371\264I=t;]<Y6\337\275\340?\002=\363\014\037<_\022/\276H\310\033\276\230y6>\360\251\331\275\316\212\034=\266\244\r\276\300\364\004\275\217%8=\320\264\203\276r`\265<\341\214T\275\250Ss\274\307&\261<\026d\305\275\235|\351<\206\033E\276\323\023\006>\220\257\213\275\270\305S\276\202\023o\276\233Q\350\275\2554\025=D\200\277=\333q\213\275AW\010\273\010p~\2759\262\234\276\256\272\250=\377\242\354\275\324\373H=+~\337=\355\t\003\276P\311\357:\3736\021>Fo\236\275\004?\005\275\364\021\335\275\347o\227\275\177\001\226=\206\376\034\276\215\360[\276\274\021\223\275\316\326\324=\"\305\211\275\202q.\276\276z\252\276]\"\006\276<\366\017\275\335K\342\274\235<\313=X\2710\276\226\034k\276\2111\252\275Sb\324\275\036N\244\276\3531E\276\200\361\022=2\223|\276on\227=\027\373\034\275\013\375\005\276\253\335\020\276\322n\001>\322\216\026\276\321\013\201\276\337\251\247\276]\004m>Wp\216\275Q>\271\275Zr\010\273\353p\326\275\216\t\r\274\221\032\264\275\200\311n\2755\231\004\276\316\007%=k\327\334=S\303\202=7n$\275\211\221\233\275?Si\27418!\276s\373\r=\332\362\t\274\234\367D\275\261\323\202\276\304\316\273=b\341\217\275\010\257\215\274\035\221\"=\36517\276\375v\240\275\343tn\276\334\375a\2768\357\224\275\340\021\236=\263\367\273\275\177\216%\2731@\256\2757@\326\275\360\032\300<_d\354=hG\004>\270;/>[\r\327=\237\371\006>\354\353\262\276\356\347W\275>V\347\275\201\255\276=\301bA\275\365\246\357\275\353 \226=M\010\016>\261\265\r\274\225\014\226<\177)\317=\214#}\275c\3251\276C\355!=\265\030\211\275K3\346\275\024\ti=?+\327=~\035 \276\352 \254=\0248*>\323,\272\275\264\261#=}\025\204\276\373\326\351\275\255\367\362\275\355\262$\276\364\305K>\323\200\311\275\033\254\271\273\201\354\032\275\202\177O\273[\307\262\275\273\020\254\274Wtb\276\333\000\020\276\027jW\275/\362\222=i\236\274\274D\204\261\2675\342\362\274\021\220\346=O\014\336=\374\257\020>P\025J>\034\310\n\275D&\306\275ye\370\273\247\000\315<\275r\235\275)\n\033=\200?\223\275Y\321,\273\255\203\023\276|\212v\274\237\3233\276\314\271\300<\376\365<\274\331Z\216\276\303\027\270\275\205\306l\274\334\242\205<\225\017\201=\277E\207=\273;=<\312\261\252\275`s\214\275oE\235=_[\262\275\346\241\226\273\272\206(\275\303~\037\275\256\010>>\301\335%\274\337V\245= k\023\275\351m\306=\362\016\272={\367\236=^\255\332\274\300x\335\2755\331m=\273\201O\276\257\032\010\276dR\233\2700\367#=\271\002\003\276\342xn<\265\325\005>,B\343\273~\222\237=3\324#\276\3556\236\275\033\366\270=n\356\274=x\371\000=9\266\266=\177\325E\275\333\231\231\275$\240\277;\271P\262\274\223\220K\276\000n\337\275\252\0261\275\223>\007=\215\014\025<\317\243K\276\031\273\357=\314\207\253=|\"J>D\025}=5\001>=G\330\177=\353\235\035\275\370d\263=.s\335\275\270&\201:\333t.=\302\275\301<5\200\314\274\202N\200\275\203\224b\275n\021\370<ws\320\2758\037<>\277\343\267\274\304\256r=\353\256\336<g\262\025\275\350\323q>\360\227\263\275\204\257\344<\373\337\257\275\350\257\376;v\024\330=\020\034\315\275\377\022\034\276\030@\256;\005\265\355=\0035\033>\330\265\337\274\234j\235=)\177\026=1\343\001>\202\242\314\275\330A\304\275/\341(=\221G\t\276-9\217\275\r.\240<\317\302\325<\260\344\346;\344O\030\276K\036\023<\346\007\354\274RL:>\2026\025\275_\"\314<\'q+\276%\202\213=d\020\017\275\035\222\377<\360\206*\275\n\356$>;\013\013<^\246-\276\361\240W<\252\362\003\276\035\0345=k+\220\274(\252\327=_\367\235=\252\372\n\274\313\314\022=\304\025\002=6\271\017\276\236v\325\275_m\202\275iQ\212=\221\005\332=46?=m^H>1\370\264\274ZT\227\275S\3212\275\203D\005<\344qB\276Zy\223<*[\234\275\315\230\237\273\013\364\246\275\024\334\254<Qu\336\275}x\227<T\370\276\275\264\'\020\276\334r\"=\243U\032\276Vw\345\274\231S\034\274D\325\263\275%\342\273\275\231\327\315=bl\210\274\002\204\211\274\364\1778\276Bd\274\275\325\330\356=,\236\t\275\252\262(\276\265\325\301\275Z\242\t>\225\352q\275\360O\016>%P\233=\201\016\025\275L\261\234<\330@\034\274&E\362\275\340\265\254=\253\033t=\332\355\221\276\343\344\252;\021\342Q\275\362\033\305\274\305`\203\275uU(\275Q\202\347\275\224\374*=\273\013\007\276T\243\035\274m\274@\276\233\272\020\274\242*\001\275\325\370\036\276\r\016A\276\227h\254\274\306\032\213\273\333nx\275\001\376J=z\005\367\275\223%\231\274\277\376\177\274\312t\364\274\365\362`>\367!\243;8\037\346\275z\362,<\362w\000\276P\370\304\275\035\035C\276\017\221\252=m\323c9\231\017\267\275\263&\231\275\330=;\276r\002Y\275[\237*\276\345\351\032\276\230\316\221\274\033\217\205\274+\017f\276\035\032\230=7a\336=\354\376g=LT\235<\307W\232=\020i\260\275\231\'\314\274\3358(\276D\311%\276|\342&<!\2158\275R\254\272\276\"\n\364\275D\346\n>\027\221\332\275\201\250(<\226W\322\275t\356\005>\021\246\t>\314I\305\274\204_\013\275\214#\364\275\230\237o<)\270,\275\376C\036>\2240\362\274\031r(\275s\304\014\275\222|\034\276\376\352\020=\200i\r>\3427z\276\342M\373\275\226\327\215<\364\306O\274\303\324\302\273\256_T\275\204\345\350:\236\277\302=\354\276\027>Rb\005=u\005\017\277\025*\340\275\037Y\014\276\"+\000\276\313\177\210\276\204\356\264\276\027l\221=\302\302 \276X\242>=\037\t|\276{\312\311\275H;\261\275+Y\000\276\314j\013=\243\020V=\256&\352=b\3665\276ps\212\276iy\216<L\354\036\276q}G\276\022T\341=\t\334\272\275\330\0022\276\211.A\276\2230\216\274\025\213\241;.\365\006\276\222\2040\275H\323\327=\344v\312\276\374\004\317\276\231w\251<|\004\321=\354\276R<\245\035\226;#$\013\276y\232\263\276e3,>\263Pw\275\2566\270\275D\222\365<-\243\334\274s_\242\2752\037\332\275\340\335\354\274\002\003\020\275\251\203f\275\300\3160\275\177\030\016\275\241\026\017>k\304]\275\253\002\330;\255%\243=\326N\336\275\340\357\006=\307t\270<\302D\325\275sgP=\303t\034\276\366\"\337\275\305\004\322\275\237\016<=\312\260\206\274\3234\014\276\275\346$\276\275=\237=\'r\336\275\267\276\016>Tl\35791\3032\275\356\221\"<?P\001>\313\016\'\276E\037\244\275\241\001\365\272\325\347\235\276\360\223\202\276\3437y\276ez\320\275iJ\216\274\206-\350\275t+\334\276\023\353\214\272L\236\355<\334\227\304\275\271\333<\276\030]\237\274/\261\260\272\320l\330\273\264\226\354=\267\000!\276\000\006\213\274Zg@=\'\"u\276\204N\211\275\373q`=\334Dp=\226\235B\275nT7\2768\300B>\302o6\276\302\214+>\301\252\\\276\342M\341<\2209\213\274\327\350\326\274\335\004\250<\263\026\307\276=d$>\202J\221\274\006)\213=\3431\245\273)\010\215\275/\0356\275\177@v\275\247u\222\275\252\2025\276#h\200\275ge\221\274|\226\221\276\227\347\027\275ig&>\306\341#>K\241s=\014\274Q<\373\035\032\276X\021\201\275$>M\275\234\035%\275\331sc\275\032\013\335=\265\370\037\276\233fk\275\241\227\230\274\307.\326=iU\323=\277\253\254=\237\205\\=\3629C>\021O@>\210\032$\275P\343\202\275\3002M>S\0273\274}l\254=Uz\233<\260&\031\276_\035D<nD4\276b\033u\275\314D\017\276ZC\277=#\320\325=q\232\007>6\376/=\375J\323\274\311@\326=ix|\275\314\360\234=\307\017\326=J\215=>9{\216\273\215\203\'=\376,\363<\322*V>E\364=\273\255\203-<z\214\322:\237\245\374=+e\304<\320\364\t=Z\030\331<g\324\034<rr\322\274\305\270\276\275\n\031\322\275\3221g\275G\003\317\274\031S\351;\331l\037\275\275i\220\274v\360\374\275\310\366W\275\2322U=l-\321\273\360\354\301=c\343\035\276?\377\004\276{\241\025\275\3671B=1J\205\274QmU\275\350\206\311\274\353\203,=\304\t\001=\261\362P\276\233_\036\276\022\331\250\274{3:<\177n#\276\337E\372\274t\274\202;8\317\347<\324\271]=1f\233\275\366p\000\276\2153 >\206s\331\275\0012\374\275\nK\364\275>;\222=\305\220n;\314]d\274+`+>\236\363\">\021\347l>\315\243[=7\305N\275(\262\247=\313x\364=>\333\005=\210\213e<\355\027\264=eq\333\274\314G8\275\177\246\312\275\3345\232\275\361\023\312\275\267\017\263\275\264\323g\275a,\375=\237H\367\273\342\2766<\333!\000\275}7\003\276\251H\232\276\036\023\201\275\254\2128\276\240ns\275\202d[<\255?\033\275y\337\000>\312\235R\276\010\263\316\274\222\265\004\275\013\003\203\276t\233\361<n\021p\275!\006h;\372\375\365=\000E\210=\016\241\000\276\253\353\302\275\324\3517>\277\"N9\037:\313<l\232.\274\271\323\033=\020\020\036\276\276Te<\031\215.>&4\030>\341\013B=\312r\r>7\0201\2769\255\302\275\327.\334\275\366\006\017>\t\017\001=\225\3203\276b\204\026\276K\241\252\2758(\235\275#\332j=C\360\004\276Mf\230\275\216H\331;\243\253\263=\004;6<\330%u\274\370\024\004\276i\2666\275|\r\221\276&\372\021>\322\250\236\274\346a\206=7\033\354\274K\034*\276\326\366z<\362\332\026\276\034\233\002=\037D\223\275\220\367%=\343\245\235=\233\361O\276A\301+=\r\354\321\274\357\212L\275\353\t\260\2758,_=ZB\221\275#73>&\233\t\276\353~\355<r\260\223\275\235\027\317\274G\246\021\275\202\350\220\276+Y\254\275\236\367^\276_\376\024>H\347\310\275\006\037\357\274\314:2=\025\337J\276\356\254\235\276\031\271P>\211\306\321\274!\226#=*\300\230\275\276\344\235\276\272\030\223\274V\0307\275\336\037\'=P \230=\010n\307<IQ[\275:W\246\274\366\034\246\273\276i\033\276\315\353f\2754>\220=\005\377R=4T@=rVM\276,\302\236=\317\321\216\276\264e\234\274\037&4\276\222\313\\>\326\333\213:\315\220\232\2728\325\006>\220\316g>\372\217N=M/\265=\247\225\013\275\337\355\375<22\020>\332\230$\275s]\323\276T\224\377\275\304\222/\276\246\254\275=\204\242\243\276Y\3577>~\320\232\275;\362(=\272C\235\274\306o\244\275\306C7>\204\301\300\2748\014\321<5\213\033\276\365\\\021\275\313`,\276]S\010>\320w4=i\305\246\275;\305\300\276\031ES\276$\000\003\276\016\336\270\275\234\246\025>a\203}\275G\"a>\326\217\242\274 \'\014=V.\031>4?\271\275\246\374\276\275\020\377\262\276\204\236\202\276\347\3363>\001\314\017\276\213\0172\276?1\247=\214\266\030\275\352\"\200\276L\221\021=tW\214=\037\260\202\274P\224\005\275W.\242\275\377\305\014>\370\271\277\274pm>\275\232\031|\275\243O#=\212\320/\275\340\003\311\275\210\263Y=\335i%\276\277\332i\276\276\001\034=1\350H=>\231\322\275\220\232\346<\002\344\006\276G\021\"=M\226w\274\311\224\032=^\0204\276\'\317\246\276[L \276>\250@\275\265T\003>\331b\233\274>c\016\275^\377\235\275\226#8\274[$H\274\211\223\024\273\360\237V\276\"\253\350\275D\346/=F\337\021=\2756\000>\200\331\371=K\340!>\r\244V\274,\224\352\274\250\3015\275\231\212\240\275\244\236\264\275\347\036\262\275\276[\007\276\"\362G>\021\307\313\275\034\373\031>/\375\215\275\313CB\276\233O\333\274\324\204O\276\270\001\215>\n\023[=\036\233\265=\203\354Q=\344_\342<h\255\006\2750\251\350\275t\337\371\275rM\203=\277\177\362\275\3762+\2752\210\210;7\214\037\274\260,\200<sv\213<\322X\334<&\330\025\276d\352\303=E\327\247\276\335\303\231\273\275\275[=R\256\325\275\364\266\347\275$+\'\274e\260c\275#\3252\275\031h\000\276\005h.<\257\343\261<`Y=\276\000j\277\275\333\357\216\275\367(\332\275\240Xk\274\217w\270;\334\202E\276H@+=\212i\n\273\363\300\031>6\226d=\233I\320<\220\333\212\274\202\331.>*\323\002\275\t0q=\221\204\266\275\306\3312\275\200\300<=S\006\331\275\347\002\351<\337\257\021\276r\345\261<\325p\277\275\332\220\007\275\250\224\260\274\201K\266\275D\342\251=\217\006\257\2752B%\276\023\3017\274\016\245\271=\332\000\256\276\330\243\234\274\370\034\315=H$\303<{\301\222=\211\2231\275n\2024=\345\321\221\275\364\317\241\275\307\213?>\r\3049>Y\212\r\274\025\036\022\274\340\236\037<\331)\300\275\004\213\300<\321Ez=g\364n\275\362\364\232=q^n=Fp\306\275\244\220\310\274)\023\364<\252\271y<\365\223}=\200\334\242=\031z$\274\306:\0229\321\032%\276f\211U\275\n\0327<\001\264\361=N\353\025\275=\274\331=\006\3272\275/L\236\275\"\306\241\275\257\312\356<\330x\007\276\222\021><\375\211\000\275-\202\3758\224/\233=\377v\310\275\331Z\334\274;\206=>\230\223e>\352\225\324\274-\034\277<\334#\271<\316\005^=\223C\227=N\234\032=G\261\224\276\323\220\214\275\203\332\257\274\361,\016>\312\025\'\275\270Av\275\347,\247\275cw\325\275]\204\017\275\r\214\270\276^:\245\276\033|L\276\204\231\013<)\326\025\275\305\273\205=\242v\r>\331\331\022=\302\3001\275\230\244\262=A\\g\2766-\312=\005;\241\275\2676\205<\263\276\004\276\2504A=\177[L\276\3076~\275\216\004M;\202\001\344\275\301\322\255=\217\257\037\275\t,\n\276\217\247r;L\200\333=\276?\343\274\331\265\024\275\300\272\000>\017I\231\275\207\361X>\327\206\017\276\246\351\306\275\250\017\210\275{\2267>\201\203\221\275\025\007V\273U\275*>\247[\205\276y\212-\276\336\3142\275c\340\251<\354 \017>\035&(=\221\336\217\276\346\026q\275&\247\325<\376\263\300\275\'\027\">q\360h>\371\367\202>l\324\333\275V\274r=\017wf\273\346^\273\275\270c\244\275\362\257\261<\231\345R\275\3726\273=b\177T\276\256}\320\275/&q\276F\rT\276?\336\006\276\034\241\303<\034w\032\275\275\025\003<\177\371\276\275\203\r/\276\201}\321<w\177\355\275v\302\">\216\232@>%\314\243\274t\307\300\275K6\222\275\323m\335\275\301W\344\274\014#\260\273\366\202\031\275\365u\337<\310\003\201\276\360\322\256< _\302=`\237:\276E\316@\275\201k\251\275}\247E\275\377\303\231=6<\346\274\333\325\"<\254A\303\274\371\277q\275lB\216\276&\255\261<\200W\030\276\r\221H\276\307S\210\274C\335\313\274\275\371\252=D`:\275\200\200\351\273\005\"\033=9\034\336<\'\332\373\275-\025a\275\332\330\215=\377>\205\276\r\200\273=\247P\351\275~\225\211\275\345\177\351\275\357\3759>N0h=\325\315\257=\0014\205\275\220\327p<\003\2228\276V\206\377\275f\260\351\275>4r=\246f\204\275\212\345\234\275\272x\267=\335\335Z=+\010\210\275N\266\030>w\006\311=6\340\200;\312-\211\275S\3547\276\323\231\207=\375\255\342\274\016\226\247=\003\374\253<d\222H>\r\327\276\274\344\332\225\275\211\353:\276`JS=\344\367=\276\rG\221\276\323(\t=\326\020\221\275\342\272\203\275\003\263\300<\207\257\026>\000z\026\276PK\303<L\375{\276h\210_=\014\037\340=\230\014a\275\234ic80\034\311\276\023g\342=L\270\023<F@]\276]\353%\275\220\262\002\276\330Is\275\023\025\210\273V\226\221\276m_\313=\017\211m=n\352\372\275\002\260 \276\375\200\030\276`J\371\275.\303\035\276*X\336\275\355\217\303;\302\231\301\275\024\035\367\274\372u\256=b.\200\276\2314\226\274\355\375\337\274\223\037\370=j\371Y\273\325\337\243\275/d\025>\'\'\013<\252\336J\275P\363\365\276\024\220B\275\363L\024=\235\304\013\276TD\315\275\246D\200\276u\t\323\275\264\036\366\275\353\250X\276urD\276X\277,\276\225W\204\276\037\202\355\275\305K\000>d\357\247\276\276\277`\276\217\226G\275\342m@\276\013\354\270\274\250\204i\275U\265\203\274Bo2>\033\2415\276l\005\344=\340\001\245\274\334\363\201>\215\353&\276\257\376\211\276\235\315\262<3 {<\264r\250\275b\343\327=\220P\232\276\227a\236=%\321\224<\273\222\225=\330\013\221\276\375+\211\275\245u\221<\364\345\260=\3501\272<\316\341l=\221\377\274\275x\357\203=\3425\204\275\370\202\346\273\361&\006>\244\246\225\276\307\315\r\276rm\316\274\341\030p=\254\366t\275\341\327\243<\022\221,\273\314+\260=?*\303=d\003>=fr1=\037\310\360=@@t\275\372\027\305\274\004\001\200\275z\2023\275\313Z\016\276fJ\224=,\310s;\025V\277\275\255\365L\276\01406\275\302i\320\275\375][\275\225\317\367<\2604\023\276\246\014\002\275\204\354\227\274\te\306\275\215\277\300\274\365\242X>\360\270s\275\315\230\275=\363\305\262\275l\364[\276\307\225\017>\337\207\211\276\256\275\014\276\204y\306\275\260*\306\275\251\363<>%if\275\374@\007\275{.\323=\030\342E\276\371\333;\275\322K\336<&\202\331\272\345\252o=\354#K\273\010\002=\276y\222\262\276c\201\217\274\311\312&\275\314\344\357\2756>$\276\356\252\032\276E 2\276!\013\010\276\313\253\226<\030\2105>\206\020\003>\010\231\337\275\002\367\033\275\256\246\035\276\301\032d\275-d\261;$o8\276\216\346\316\274\3626\376\275\020\341>\275 \347!>\010\370\374\275\320C\021\275*\004i\275^\267\214=e\210\327\275\243\247)\273\310\322\275\2755\rZ<\203\243\225\276c/\310={\343\230\274\374\r\305\275\321\331\'\275\314R\314\275~q\024\275)\"\234=L\302H\274\302ZH=\r\325L=\226\351\n\276F\"n\275s\224\300\274\353\205\205=\033\255\217\275(\310\302<W\342u\275\266\237\031=%\224U<tA8\274\303\337O\274\342#\207\274\014\2742\273%S\002=\311\307\207<\212\253\224\274\004#\232\275\341\322\354\275_\373\215<\264C\314<9\035\327=\320\347\323\274\201\364\207\275\340&\010\276y\316l=\2267\326\273O\321\341\275\031\311K=\367}\247=\223{k=\315r\001;\\\244\326<\010\222\227\275\370t\r=\367\215\037\274d\217\237\275\305!\303\274k#\020\276\200\346\007=\321\231t=\013p5=\036\372\250\275-\036\220\274\006\005\263\2751\201\"\276\016\023\'>J\247\266<\271|\363=GU\036\276@\301\344<Cj\253=\025\205\217\275\2476\204=~\235\234\276&S\032=@\031\'<X\003\362\274W\216\021\276\\D\302\275\304lS\275H\022\203=Z@\223<(\215C\2767\235R\275\023\302\207<\300\311\311=\304\363\203\275\257\222i\273\220\367\306=\312\351\211\275\"\"\236\273\310\026\257\275\326\374\377:\000 \373\274\013\346\026>\007\333\t\275\257\217\271\275\345\r\261=\211\205o\273\323\305>\275\244\355\304\275\210\365#=\211\027\315=\374\264B\275yB\"<\302\335i\275\257(\365\273KT0=\250O\221\275\335\357\312;H{\240\273\377S\021\276\317\240\272\275\347\2514\275\031Qg\274\331\021\023>\3168\237=\327\006\367\275{c\264<U\344\323\275\034\340\317\274W\211\323\273\203e\225\275,\227\010\276\2738\233;\336F\010\276\307{\004>/\024O\275\323\322\271=\334\210x\275\276\312\330=\"U\235<\336\270\006=//\234=}\273\345<\303\365\001=|J\253\275\033M\362\275\313XJ\275\202\244[\271\375\321\216\275U\2059\275]\332x;\251\030Z=\007\250\014\276x#B=\217/I\275\277\216g\275.\027\370\274\234\312\220\2751\264\201=\362gB\274p\234\212=\016\200\034=\350\213\301=\355f\214=T\231\241\2763\213n\275At\333=\035RB=\370\302\010=\233\262B\276\236{\013\275\237\020.\276eo\264<\330\010\341<\204\345\245<vm\316\275\377,\\=\217\003\375\275*Y\373=,\222\266=\r\255\232\274\377{m\275#(\000>\254\271\244=p\365;\274\353\320\374\275\357\225\362;\014c\001\275\001\317\334\275$K\215\274,\326\235=a\315\331\275\267%\310\273\367\310\202\276\245\022F=\243xY;\302\262$\276[a\312\275\035$\200=\346\t\300\275b\035\021<!\222\017\273\260\314\277=\3637\246\275C\321d=4F\302\275\005\000H\275\327j\245\274\270_\213\275`\336\234\276OWe\2760l$=n\315\237\275\317\342\331=\375\342;\276\316\350\371\274P\306,\276{\232r\275\320\307\307\274\3231\233=\347\311\277<\365e\026>;\255y>\333#,\275\322\000\364\274\027|\202\275\037\033y\275ww\361;\343PY\275\3758\222\275q\023\320=\254\r\017\276\017\332\271\275\000\235w\275\017B\207\275^\220_=\267.\240;;\262\300\275\266\005\221\275\312l@<E\353\263\275\224\270\002>/\245\004>\177\226\234<Bb\343\275\020\341\t=\005\220:\274\037\251\322\275\352!g\275\'\371i=\006\356\023\276v\000\372\274\004LI\273\321\317\253=\225\204\206=\243\324q\274\327\2148\275/\246\266\276\211\365\235<2\243\225=\242,n\275R\271F;\317\352\261<*{\263=\r\016G\276\241\273\223=`\337\020>(\001\030\275:\300#>Y\3763\275\t\247\024\274\276\026F\275\261\023\210\275B\246\211\275\3603R\275Z\224\362<\371O\272\275rf6>~\362T\275\237\325\035\276f\373\355\274\306C\033=j\342\317\275\241YE\276j\334e\276\351\0316\276H\372\334\272\261\177_\275\253|\340<\002\347b=\3121q\274C\273u<\236\2325<\020Z&\275\'\224\001\276\025\257\237=9\025\024\275\236Q\r:bO\217=}\314\332\275\\|!=Gz\n\275\035\200\263=\325\327\221\275\267\364\333\275 %<\275\027\236\265\275CM!\275 \3419>\007\252\007=P\233\243\272\020\317\354\274s\016n<`:\363=<\006(>\316\325\023\276\346\201\235\274\306T#\275\235\000\250=\322\201\206\276$\226-\276\252\342k=<U)>I\343\357\275\241\264p<4Y\204\275;\3457\276U\003\201\275D\366+\275\312\255\230\276{\020\013>Zr\310=!\361\257<\001\020-=OJ|=\032\364\n\275\371OG\275y\033N\274x\253\022\276\326\254\252\275\334\263 \274\341\375\372\273\226\002W\274\321 \251\275!+\321\273>hn=\n9\303\274\372\250\243\274\256\254==\311\355\032>U\334&\274\2337\374=j\026\016=\235C8=\232W\330=\343\311\201\275\221\345y>E\215t\275\214x\260=\323[l=V{^<\360\315\267<\276\230\0218\326\320Q\275\375\241\026\276B\333\204\275\214oN\2763A\033\275\240Nt\275\2660]\271\036\337\262;\"\306j\275\235\227n\276:\027#\276\3209\216\276\353P\232\275bDy<\022\022N>\216\241\245\273\214D\371\275\200\333\200\276\217\366\353<\353\322\351\274\032\007\214=:\037\215\275T\326\245\27502\002\274.R\337=\320\327\020\276F}\021\275\216w\236\2757M\236<k6\013\276\007S\013\276\004r1\275\370H\016\276\345M\001\276\353\306P=#u$<\222E|\275wC\210\275\222\201\200\276D2\217\275\r\253&=\005m\323\273\026\310/>\312#m\275\243\234?\276?<\221\274\340\020L\275\262\246\372\275\246\267\253\275\nj\375\274n\0066\275D\302[>o&\214=\325\224\004>\267\r#\276\243\231*=+\020\334\275\327{\031\276\236d\007\276G$\302=F\365\301=E3\021\2753\324\272\274qr\001\276\003\226_\276\004dF=\237u\314\275\372\207[\276\003\\&>\363\375\275\275\"D\204\275\234\353\206=\231r\343<\310.\363\273U\214%>\177\367&<%\361~\275\357\213\016>\026\243m\274{\205\247=\010H\007\276\305x\275<\004\201\211\276\r\216\222\274\246\362+>\205\267Y\275\224}\022\276\214A#>\r_p\274\357\364\351\273\010d<\275\366\254#\276\367\227?\275\033\247[\276\343JZ\276J.\312>a\241D=n\027\025>\236E\210=\316\224\376\2753\312\000\274\213\370\261\274\235\005\370<\313\307\230<\262\275\013\276M\344\223\275\2211\014\276\232\311\355<\037\271\267=\036S<\275\357\272c\276\032U|\276\202\364\2508\014\220\202=\350o\355\274\367~z\275M\357\267\275%w\342\275,<S\275\006\rN>\336\000\371\272\216?\005>\241\233H=}\241G\274q&\373\275?\3435\276\347\224\262\275\231R\226\275\326\rw\275DG_\275\345i\354<OK\304\275\336\003\211=b\214h=L\236\246=\220u\346\275\356\302\223\276\216\365\032\276S\275\006\275R\226\'\276z#&\276\245\374D\275\r\316f\276\354[\360\275Z\0012>+\232\313=N \261\274\347:\273=O\227>\276\331\006\247\274\32131\275\377\225\261\275]A\036\276n\3027\2760\201A\276f\372\203<\272\010[\276\001\350l=\332\307\216\275\230\206?=\220\363\235<&\2314=,\216o\273\006\207\253\274\010Q\342\275V\234\252;sc\r\276\324^\251\275\263d\021\276k`q\275\334\236\351\274\332\006\257\273\271\252x\273\271\356l\275\274G\214\276X\271S\275\272\265$>\002b\301\276\375d\205<\020\025\214\275\244\013\255\275\006\201\237\275\225y\326=\277\325\306\275\017\235\274\275\270\310\271;7\246\320<e\017\027\274\036\340}\275\330>\224\275y#,\276\010\377\265\275s:F\276\001\212\223\274\275\3038\2741\312\316=\224\340P\275\017\321\270\275\230\345>=.\360\005\276\332\350\215=C&\022\273\223GO\275\305\240w\275\311\272H=WX\355<\301\252&=t\217\\\275\270~\352=(Oe\276po7\275V\026\023=,\262\206=\030|\227=8\217w\275\325\253\222\275O\356\016\276\340\250^\274\037\320\250\275\344S\316\275\376\245\265\276\273\307\206\275d\037\037>\360v\344<%\244\325={\366w\2758VP\275(\304\226\275\265\355\206=\25092\276\371[!=\371\316]<\234~\334\275\215\366\325\274Br =C\301\373=\004\313O>\264\2253\275\257(\351\275\207I\361\275\204\251\243=(\216\304\276\233\340-\276X\303\266=\227\362\336\274\353!\376\274\235w\272=\222\264\226=\336\253\334\2733y`>Z\333)=\301]\340\275\r\321\315\275jQ\211\275\254>\254\275\016E\275\275#\251\021\276*\246%>\007\324\346\275\243U\006>\342\353\215<\365w\232\275w\211\326\275\021PR\276\017\252\006\276\336\237)=7\246\343\274\375\276\327\275\2152e=L\255\034\275\265\230\251=\364M\251\274b\237\027=\025\310\000\275\265*\262<\365\277W=\"\342\275\275v\303\254=\\\327\335\275\241\345\214\275G\264g\276s^\016>\365\247\010\2761\277X\273\322\300(=\235\340\351<9h,>\330d\013;C\230`\274\230\307G=N\221i\275\322*\261\274U\364\231\274\002\207\264\275d\363\236\275\242\361\204=,Sh=\317\360\355\274vdw=\375[W\275\376!\356\275E,\325=5?\364=\3009(\275\205\303\214\275c\003\213<\332%\000\275\320/\257=\037s\330\274\222\023f>\202y\002\274\355\320 =:\235*\275Y\335\023<\314\346}=\310=5<\2536f=\255\210\205\275\210l\346\2754m?\274\215\274\220=zr\202\275U63=D\325\003>\211\035\207\274\236\337\201=SKi\275f,`\276\2668\216=2mT\275\305-\003>\305\277\330=\024\256\323<\355\254\030\276\303\201\306=\266u\323=\313\254\003\275\335\266i\275\255s7\275c\342Z\276u:\300\274\276j!= n\'\275\032\'\267=U\215\004\276\314\3405\275\261\301\345\275\250\351z\276:-\234=\321&\220\274\271\'\020\276\036\234\247=\034\026\"\275c\260\313=\220\361\353\274\207\003\373\275\322\302\023\276\203?\'\275\264k\313\274\252\252\225=h\327\200=\224\234w\275h\3458\275\020\204m\275\270\016\205>\3128W>\371\247\027=\177f\004\276^C\032\275\374\267\335\274k\341@\275i\013\351=\305\316\226\276\022\325\205\275+\002\200<\272\344\316\275\375\007\335=\021\"S\275\363,\"\276|~p\273\277\204\232=\223\004\020\274\037hh\276\321B\324=\215\351\321=\017qq<\036\006\250<\210m\010>\005\002\275\275\257X\310\275\203\014{\275\351\3409=u\211\352\275z\220\003\276\337\223\201\276\372\027\204\2750\215\311\275[#[<,\351\017>\250$\275=\257J\301=$=7=\242\377\216=\265\220\022\276V\312\201=\354\021\257\275\003\r\203\275\270\242\264\274(\000Y\276S\303C\274\343\360=\276F$t\275\227\365u=\361Y\263=\300\360\010\276Y\351\t\275<\275\023>\364\032\260\275\000\324\252\273\256\363\034\275\326\213\233\275h\240\205\274\271#i>\316\027^=Q\271s\275\232mx<t\265\240\273^\316\234\275P;\177=\030\360\241<4Z\032=\203\250\231\276@i\202=9\324\314\2755\344^=:\330\225>\3103\275\275\277H\035=\222\206o\275RP\014\275\363[\351\275!`\032\275Ti\026\276\245\366\206\276\315\177C>\205vW=\346\304\327=#\376\201=j\355\211\276\334\326\264=q\327\255\2748k\365=\t\212x=mi\004\276L&\377\275Wl\037\276\240\314h=\330\334\262\276\0265\010\276\270\266\207\276\014\370\273\2759[\307:;I\241>\246\231\372\273\336\257\330\275\330}\317=\354\'\227\276\tr\227\275\355~\321\275\0075\220\275\371\335\014\276\"\330+<C\354\314\275\340I\234<\303\0333\276\207M4<\347\227G\275Y\022\303\275\221\210\262=\337\2244\275Jl\t>\223\356B\2744\334q\276\216\273\202\275p#p\273\\UL\276\235\346 =\216&\274\276$WA\275\000\r\024<|\332\303\275\010,F\276\037\240\201>7N\360=\243\034\245\276\224G`\274\231U\"\274\"m\035=\267\347\257=\331\302\334=\353\213\321\276\321\024:\275\236\214\214=\320g\242=bK\"\276\353\254\223=K\023\177\276h\322\233\276\221O\"\276\317\014\222\275\276\313\"\276\215Y\246\276\274\245\010\276\253\310\003\276\317(\362=\237y\312\272\247G\356\274\001\010\037\276\253\024\305\275\217Y\t\276\020\356\240\276\277%\222\275\277U\274\275\250e_\276\212\004\"\273e\036\246\2757\317\022\273@\305!\275\020=Y\275[\014\020\274\324\000Y<\270)\234\275\031\261=>\374\327E\276}\304\231\275\241\323\223\276S\330\031\274\003\232\224\274\371$\215\274:\255\253\273u\rh\276\0179,\2720\262\263\274\204\322\035\276\316,\234=`\360\003\276 \035 ;*\310\363\275u`\252\2763z\n\276\356\371\324<\324P\'=\351\252\357\274w\354\026\275h4\">\007,\251\274\217PF\275\223\323\t<\315}\025\275\340T\\=1\325u<\340\0227\276pA\006\275>O1\276Q/\031\276\236\227\320;\344\276\024>\324\350\260;\357\336R</\267,